{
  "version": "1.0",
  "truncation": null,
  "padding": null,
  "added_tokens": [
    {
      "id": 0,
      "content": "<PAD>",
      "single_word": false,
      "lstrip": false,
      "rstrip": false,
      "normalized": false,
      "special": true
    },
    {
      "id": 1,
      "content": "<UNK>",
      "single_word": false,
      "lstrip": false,
      "rstrip": false,
      "normalized": false,
      "special": true
    },
    {
      "id": 2,
      "content": "<BOS>",
      "single_word": false,
      "lstrip": false,
      "rstrip": false,
      "normalized": false,
      "special": true
    },
    {
      "id": 3,
      "content": "<EOS>",
      "single_word": false,
      "lstrip": false,
      "rstrip": false,
      "normalized": false,
      "special": true
    },
    {
      "id": 4,
      "content": "<SEP>",
      "single_word": false,
      "lstrip": false,
      "rstrip": false,
      "normalized": false,
      "special": true
    }
  ],
  "normalizer": null,
  "pre_tokenizer": {
    "type": "ByteLevel",
    "add_prefix_space": false,
    "trim_offsets": true,
    "use_regex": true
  },
  "post_processor": {
    "type": "ByteLevel",
    "add_prefix_space": true,
    "trim_offsets": false,
    "use_regex": true
  },
  "decoder": null,
  "model": {
    "type": "BPE",
    "dropout": null,
    "unk_token": "<UNK>",
    "continuing_subword_prefix": null,
    "end_of_word_suffix": null,
    "fuse_unk": false,
    "byte_fallback": false,
    "ignore_merges": false,
    "vocab": {
      "<PAD>": 0,
      "<UNK>": 1,
      "<BOS>": 2,
      "<EOS>": 3,
      "<SEP>": 4,
      "!": 5,
      "\"": 6,
      "#": 7,
      "$": 8,
      "%": 9,
      "&": 10,
      "'": 11,
      "(": 12,
      ")": 13,
      "*": 14,
      "+": 15,
      ",": 16,
      "-": 17,
      ".": 18,
      "/": 19,
      "0": 20,
      "1": 21,
      "2": 22,
      "3": 23,
      "4": 24,
      "5": 25,
      "6": 26,
      "7": 27,
      "8": 28,
      "9": 29,
      ":": 30,
      ";": 31,
      "<": 32,
      "=": 33,
      ">": 34,
      "?": 35,
      "@": 36,
      "A": 37,
      "B": 38,
      "C": 39,
      "D": 40,
      "E": 41,
      "F": 42,
      "G": 43,
      "H": 44,
      "I": 45,
      "J": 46,
      "K": 47,
      "L": 48,
      "M": 49,
      "N": 50,
      "O": 51,
      "P": 52,
      "Q": 53,
      "R": 54,
      "S": 55,
      "T": 56,
      "U": 57,
      "V": 58,
      "W": 59,
      "X": 60,
      "Y": 61,
      "Z": 62,
      "[": 63,
      "\\": 64,
      "]": 65,
      "^": 66,
      "_": 67,
      "`": 68,
      "a": 69,
      "b": 70,
      "c": 71,
      "d": 72,
      "e": 73,
      "f": 74,
      "g": 75,
      "h": 76,
      "i": 77,
      "j": 78,
      "k": 79,
      "l": 80,
      "m": 81,
      "n": 82,
      "o": 83,
      "p": 84,
      "q": 85,
      "r": 86,
      "s": 87,
      "t": 88,
      "u": 89,
      "v": 90,
      "w": 91,
      "x": 92,
      "y": 93,
      "z": 94,
      "{": 95,
      "|": 96,
      "}": 97,
      "~": 98,
      "¡": 99,
      "¢": 100,
      "£": 101,
      "¤": 102,
      "¥": 103,
      "¦": 104,
      "§": 105,
      "¨": 106,
      "©": 107,
      "ª": 108,
      "«": 109,
      "¬": 110,
      "®": 111,
      "¯": 112,
      "°": 113,
      "±": 114,
      "²": 115,
      "³": 116,
      "´": 117,
      "µ": 118,
      "¶": 119,
      "·": 120,
      "¸": 121,
      "¹": 122,
      "º": 123,
      "»": 124,
      "¼": 125,
      "½": 126,
      "¾": 127,
      "¿": 128,
      "Â": 129,
      "Ã": 130,
      "Ä": 131,
      "Å": 132,
      "Æ": 133,
      "É": 134,
      "Ê": 135,
      "Ë": 136,
      "Ì": 137,
      "Î": 138,
      "Ï": 139,
      "Ð": 140,
      "Ñ": 141,
      "Ó": 142,
      "×": 143,
      "Ø": 144,
      "Ù": 145,
      "à": 146,
      "á": 147,
      "â": 148,
      "ã": 149,
      "ä": 150,
      "å": 151,
      "æ": 152,
      "ç": 153,
      "è": 154,
      "é": 155,
      "ê": 156,
      "ë": 157,
      "ì": 158,
      "í": 159,
      "î": 160,
      "ï": 161,
      "ð": 162,
      "ó": 163,
      "ĉ": 164,
      "Ċ": 165,
      "Č": 166,
      "č": 167,
      "Ġ": 168,
      "Ģ": 169,
      "ģ": 170,
      "Ĥ": 171,
      "ĥ": 172,
      "Ħ": 173,
      "ħ": 174,
      "Ĩ": 175,
      "ĩ": 176,
      "Ī": 177,
      "ī": 178,
      "Ĭ": 179,
      "ĭ": 180,
      "Į": 181,
      "į": 182,
      "İ": 183,
      "ı": 184,
      "Ĳ": 185,
      "ĳ": 186,
      "Ĵ": 187,
      "ĵ": 188,
      "Ķ": 189,
      "ķ": 190,
      "ĸ": 191,
      "Ĺ": 192,
      "ĺ": 193,
      "Ļ": 194,
      "ļ": 195,
      "Ľ": 196,
      "ľ": 197,
      "Ŀ": 198,
      "ŀ": 199,
      "Ł": 200,
      "ł": 201,
      "Ń": 202,
      "ĠĠ": 203,
      "ĠĠĠĠ": 204,
      "in": 205,
      "er": 206,
      "ĠĠĠĠĠĠĠĠ": 207,
      "on": 208,
      "ĠĠĠ": 209,
      "re": 210,
      "--": 211,
      "at": 212,
      "st": 213,
      "en": 214,
      "or": 215,
      "Ġt": 216,
      "le": 217,
      "al": 218,
      "Ġ=": 219,
      "se": 220,
      "ar": 221,
      "it": 222,
      "an": 223,
      "de": 224,
      "ion": 225,
      "Ġc": 226,
      "me": 227,
      "Ġ\"": 228,
      "ĊĠĠĠ": 229,
      "ĊĠĠĠĠ": 230,
      "ct": 231,
      "ro": 232,
      "he": 233,
      "----": 234,
      "Ġ(": 235,
      "ut": 236,
      "ĊĠĠĠĠĠĠĠĠ": 237,
      "Ġf": 238,
      "ing": 239,
      "ic": 240,
      "**": 241,
      "Ġp": 242,
      "is": 243,
      "es": 244,
      "Ġa": 245,
      "//": 246,
      "un": 247,
      "ge": 248,
      "ent": 249,
      "ĊĠ": 250,
      "Ġs": 251,
      "Ġ{": 252,
      "lo": 253,
      "mp": 254,
      "ĊĠĠĠĠĠĠĠ": 255,
      "==": 256,
      "ed": 257,
      "ur": 258,
      "ame": 259,
      "00": 260,
      "Ġin": 261,
      "as": 262,
      "ac": 263,
      "Ġn": 264,
      "ex": 265,
      "id": 266,
      "il": 267,
      "Ġo": 268,
      "Ġb": 269,
      "Ġw": 270,
      "Ġre": 271,
      "Ġthe": 272,
      "co": 273,
      "if": 274,
      "Ġd": 275,
      "ri": 276,
      "ate": 277,
      "ad": 278,
      "pe": 279,
      "Ġm": 280,
      "Ġ<": 281,
      "ĠS": 282,
      "Ġ-": 283,
      "Ġ'": 284,
      "ue": 285,
      "##": 286,
      "--------": 287,
      "Ġ:": 288,
      "))": 289,
      "ul": 290,
      "et": 291,
      "ĠĠĠĠĠĠĠĠĠĠĠĠĠĠĠĠ": 292,
      "el": 293,
      "ap": 294,
      "Ġ[": 295,
      "and": 296,
      "li": 297,
      "ab": 298,
      ");": 299,
      "ch": 300,
      "ot": 301,
      "Ġv": 302,
      "\",": 303,
      "ĠT": 304,
      "ĠA": 305,
      "ort": 306,
      "ation": 307,
      "ĠC": 308,
      "ig": 309,
      "ĊĠĠĠĠĠ": 310,
      "ol": 311,
      "ĉĉ": 312,
      "=\"": 313,
      "****": 314,
      "),": 315,
      "pt": 316,
      "end": 317,
      "Ġ}": 318,
      "ce": 319,
      "Ġ0": 320,
      "ter": 321,
      "us": 322,
      "ĠI": 323,
      "tr": 324,
      "Ġ*": 325,
      "te": 326,
      "ub": 327,
      "Ġ1": 328,
      "ont": 329,
      "age": 330,
      "Ġst": 331,
      "ction": 332,
      "um": 333,
      "Ġto": 334,
      "ĠĠĠĠĠĠĠ": 335,
      "def": 336,
      "ht": 337,
      "ss": 338,
      "Ġ$": 339,
      "====": 340,
      "ver": 341,
      "th": 342,
      "od": 343,
      "ĠP": 344,
      "ĊĠĠĠĠĠĠĠĠĠĠĠ": 345,
      "ile": 346,
      "ype": 347,
      "ra": 348,
      "iv": 349,
      "()": 350,
      "ext": 351,
      "Ġth": 352,
      "ass": 353,
      "get": 354,
      "to": 355,
      "up": 356,
      "imp": 357,
      "ata": 358,
      "ode": 359,
      "ĠD": 360,
      "ect": 361,
      "Ġof": 362,
      "ew": 363,
      "set": 364,
      "</": 365,
      "ith": 366,
      "Ġ.": 367,
      "ack": 368,
      "con": 369,
      "put": 370,
      "all": 371,
      "\":": 372,
      "able": 373,
      "Ġ@": 374,
      "Re": 375,
      "ĠN": 376,
      "Ġis": 377,
      "ist": 378,
      "ck": 379,
      "qu": 380,
      ").": 381,
      "iz": 382,
      "Ġ//": 383,
      "Ġl": 384,
      "::": 385,
      "int": 386,
      "om": 387,
      "ĠL": 388,
      "ĠF": 389,
      "ine": 390,
      "am": 391,
      "op": 392,
      "####": 393,
      "ire": 394,
      "In": 395,
      "em": 396,
      "ow": 397,
      "ir": 398,
      "ers": 399,
      "ult": 400,
      "name": 401,
      "Ġfor": 402,
      "Ġ->": 403,
      "',": 404,
      "urn": 405,
      "ĠM": 406,
      "ime": 407,
      "Ġg": 408,
      "pl": 409,
      "----------------": 410,
      "Ġand": 411,
      "ke": 412,
      "ER": 413,
      "cl": 414,
      "Ġe": 415,
      "(\"": 416,
      "import": 417,
      "Ġ|": 418,
      "let": 419,
      "im": 420,
      "ĠO": 421,
      "ay": 422,
      "ĠĠĠĠĠ": 423,
      "art": 424,
      "ase": 425,
      "ĠE": 426,
      "Ġ2": 427,
      "sc": 428,
      "ment": 429,
      "ax": 430,
      "turn": 431,
      "ag": 432,
      "IN": 433,
      "Ġh": 434,
      "val": 435,
      "ption": 436,
      "ĠB": 437,
      "sp": 438,
      "Ġcon": 439,
      "ure": 440,
      "ert": 441,
      "********": 442,
      "RE": 443,
      "Ġ=>": 444,
      "\">": 445,
      "Ġde": 446,
      "pro": 447,
      "ON": 448,
      "ath": 449,
      "der": 450,
      "Ġif": 451,
      "Ġor": 452,
      "ring": 453,
      "ĊĠĠĠĠĠĠĠĠĠĠĠĠĠĠĠĠ": 454,
      "Ġ#": 455,
      "ject": 456,
      "use": 457,
      "Ġpro": 458,
      "ain": 459,
      "est": 460,
      "os": 461,
      "our": 462,
      "Ġse": 463,
      "out": 464,
      "Ġr": 465,
      "Ġdo": 466,
      "ess": 467,
      "St": 468,
      "Ċĉĉ": 469,
      "ize": 470,
      "AT": 471,
      "ve": 472,
      "Ċĉ": 473,
      "lass": 474,
      "nt": 475,
      "orm": 476,
      "========": 477,
      "act": 478,
      "Ġend": 479,
      "Ġ--": 480,
      "Ġex": 481,
      "tp": 482,
      "tring": 483,
      "ĠW": 484,
      "..": 485,
      "01": 486,
      "\")": 487,
      "EN": 488,
      "com": 489,
      "ror": 490,
      "ĊĊĠĠĠ": 491,
      "rom": 492,
      "Ġbe": 493,
      "unction": 494,
      "Ġval": 495,
      "Ġ/": 496,
      "ĊĠĠĠĠĠĠĠĠĠĠĠĠĠĠĠ": 497,
      "sh": 498,
      "ser": 499,
      "unt": 500,
      "ĠR": 501,
      ";;": 502,
      "que": 503,
      "log": 504,
      "ity": 505,
      "lic": 506,
      "ĠG": 507,
      "Ġtr": 508,
      "Name": 509,
      "Ġ_": 510,
      "ĠU": 511,
      "ord": 512,
      "Ġname": 513,
      "Pro": 514,
      "Ġdef": 515,
      "ĠV": 516,
      "lf": 517,
      "AR": 518,
      "ule": 519,
      "ite": 520,
      "Ġan": 521,
      "are": 522,
      "fig": 523,
      "ore": 524,
      "Ġ&": 525,
      "http": 526,
      "Ġwith": 527,
      "AL": 528,
      "uil": 529,
      "ST": 530,
      "ff": 531,
      "Ġy": 532,
      "Ġ+": 533,
      "ind": 534,
      "loc": 535,
      "Ġ`": 536,
      "Ġreturn": 537,
      "Ġ3": 538,
      "ial": 539,
      "test": 540,
      "list": 541,
      "Ġclass": 542,
      "Ġ\\": 543,
      "oc": 544,
      "ary": 545,
      "ace": 546,
      "IT": 547,
      "LE": 548,
      "Ġon": 549,
      "OR": 550,
      "ĊĠĠ": 551,
      "('": 552,
      "SE": 553,
      "pre": 554,
      "ense": 555,
      "ip": 556,
      "Ġun": 557,
      "data": 558,
      "rib": 559,
      "oo": 560,
      "type": 561,
      "Id": 562,
      "ition": 563,
      "sy": 564,
      "js": 565,
      "ice": 566,
      "dd": 567,
      "sion": 568,
      "ĊĠĠĠĠĠĠĠĠĠ": 569,
      "omp": 570,
      "Ġthis": 571,
      "ign": 572,
      "key": 573,
      "ull": 574,
      "0000": 575,
      "########": 576,
      "Ġx": 577,
      "IC": 578,
      "ory": 579,
      "ll": 580,
      "Ġ%": 581,
      "://": 582,
      "ource": 583,
      "ive": 584,
      "arg": 585,
      "Ġnot": 586,
      "],": 587,
      "ly": 588,
      "Ġwh": 589,
      "port": 590,
      "Ġout": 591,
      "ies": 592,
      "cc": 593,
      "ail": 594,
      "av": 595,
      "par": 596,
      "file": 597,
      "ĠĠĠĠĠĠ": 598,
      "Type": 599,
      "ĊĊĠ": 600,
      "ID": 601,
      "ast": 602,
      "mo": 603,
      "bject": 604,
      "per": 605,
      "alse": 606,
      "Ġit": 607,
      "Ġme": 608,
      "ust": 609,
      "uct": 610,
      "div": 611,
      "->": 612,
      "ug": 613,
      "one": 614,
      "cont": 615,
      "add": 616,
      "odule": 617,
      "IS": 618,
      "icense": 619,
      "res": 620,
      "dex": 621,
      "of": 622,
      "ION": 623,
      "Ġas": 624,
      "Cont": 625,
      "ĊĠĠĠĠĠĠĠĠĠĠĠĠĠĠĠĠĠĠĠĠĠĠĠĠ": 626,
      "form": 627,
      "quest": 628,
      "Ex": 629,
      "che": 630,
      "atch": 631,
      "ber": 632,
      "io": 633,
      "ĠH": 634,
      "vent": 635,
      "ang": 636,
      "ault": 637,
      "RO": 638,
      "Ġlet": 639,
      "UT": 640,
      "ance": 641,
      "ray": 642,
      "user": 643,
      "ho": 644,
      "Con": 645,
      "iew": 646,
      "Ġuse": 647,
      "string": 648,
      "error": 649,
      "ork": 650,
      "time": 651,
      "Ġby": 652,
      "ard": 653,
      "ant": 654,
      "ublic": 655,
      "own": 656,
      "String": 657,
      "iel": 658,
      "rig": 659,
      "Ġcont": 660,
      "NT": 661,
      "ES": 662,
      "10": 663,
      "ec": 664,
      "code": 665,
      "Ġvar": 666,
      "ield": 667,
      "ans": 668,
      "Ġfile": 669,
      "bo": 670,
      "ãģ": 671,
      "uild": 672,
      "ger": 673,
      "line": 674,
      "UL": 675,
      "po": 676,
      "12": 677,
      "Ġ</": 678,
      "Ġfrom": 679,
      "****************": 680,
      "roup": 681,
      "ml": 682,
      "Ġwire": 683,
      "ribut": 684,
      "__": 685,
      "amp": 686,
      "ated": 687,
      "--------------------------------": 688,
      "Ġtype": 689,
      "und": 690,
      "Ġ==": 691,
      "read": 692,
      "scri": 693,
      "Ġinput": 694,
      "lement": 695,
      "De": 696,
      "Ġch": 697,
      "lock": 698,
      "low": 699,
      "])": 700,
      "stem": 701,
      "čĊ": 702,
      "str": 703,
      "quire": 704,
      "fo": 705,
      "Ġnew": 706,
      "ĠIn": 707,
      "11": 708,
      "col": 709,
      "Ġi": 710,
      "pec": 711,
      "64": 712,
      "ĊĠĠĠĠĠĠĠĠĠĠĠĠĠĠĠĠĠĠĠ": 713,
      "pos": 714,
      "Ġ!": 715,
      "ref": 716,
      "Ġap": 717,
      "Ġtrue": 718,
      "Ġget": 719,
      "reate": 720,
      "ĊĊ": 721,
      "lib": 722,
      "ix": 723,
      "ator": 724,
      "ĠRe": 725,
      "date": 726,
      "ication": 727,
      "Ġfunction": 728,
      "ĠĠĠĠĠĠĠĠĠĠĠ": 729,
      "ight": 730,
      "ĠĠĠĠĠĠĠĠĠĠĠĠĠĠĠĠĠĠĠĠĠĠĠĠĠĠĠĠĠĠĠĠ": 731,
      "return": 732,
      "var": 733,
      "odel": 734,
      "Ġset": 735,
      "')": 736,
      "();": 737,
      "rite": 738,
      "ener": 739,
      "eng": 740,
      "Ġ::": 741,
      "Ġres": 742,
      "uth": 743,
      "ty": 744,
      "32": 745,
      "ĠX": 746,
      "vice": 747,
      "Ġstring": 748,
      "load": 749,
      "ere": 750,
      "Ġthat": 751,
      "ill": 752,
      "axi": 753,
      "Ġ4": 754,
      "oid": 755,
      "rint": 756,
      "right": 757,
      "ou": 758,
      "pect": 759,
      "Ġal": 760,
      "app": 761,
      "},": 762,
      "Res": 763,
      "Val": 764,
      "ache": 765,
      "CT": 766,
      "https": 767,
      "ink": 768,
      "abel": 769,
      "To": 770,
      "lient": 771,
      "const": 772,
      "Ġ:=": 773,
      "ake": 774,
      "Ar": 775,
      "new": 776,
      "row": 777,
      "Ġconst": 778,
      "ifi": 779,
      "Ġpar": 780,
      "================": 781,
      "Ġthen": 782,
      "ash": 783,
      "clu": 784,
      "Ġ<-": 785,
      "ĠLicense": 786,
      "uld": 787,
      "Ġoutput": 788,
      "Ġcom": 789,
      "ersion": 790,
      "ange": 791,
      "else": 792,
      "Ġtest": 793,
      "En": 794,
      "path": 795,
      "erm": 796,
      "AB": 797,
      "Ġfalse": 798,
      "atus": 799,
      "Ġ&&": 800,
      "ãĥ": 801,
      "og": 802,
      "ument": 803,
      "self": 804,
      "ĠString": 805,
      "pack": 806,
      "ded": 807,
      "value": 808,
      "Ġdata": 809,
      "yle": 810,
      "pert": 811,
      "ach": 812,
      "UN": 813,
      "Ġvalue": 814,
      "OT": 815,
      "ystem": 816,
      "ãĤ": 817,
      "rc": 818,
      "olor": 819,
      "\"]": 820,
      "head": 821,
      "ME": 822,
      "Ġself": 823,
      "AD": 824,
      "Ġj": 825,
      "onse": 826,
      "define": 827,
      "map": 828,
      "ne": 829,
      "ib": 830,
      "ength": 831,
      "opy": 832,
      "20": 833,
      "umber": 834,
      "Ġ>": 835,
      "16": 836,
      "lect": 837,
      "urre": 838,
      "Ġ)": 839,
      "enc": 840,
      "eb": 841,
      "ĠK": 842,
      "ms": 843,
      "';": 844,
      "Path": 845,
      "url": 846,
      "Ser": 847,
      "Ġtime": 848,
      "Ġinst": 849,
      "ob": 850,
      "itle": 851,
      "Data": 852,
      "Ġint": 853,
      "ĠĠĠĠĠĠĠĠĠ": 854,
      "ry": 855,
      "class": 856,
      "Ġcomp": 857,
      "Ġ5": 858,
      "ĊĊĠĠĠĠĠĠĠ": 859,
      "local": 860,
      "Ġany": 861,
      "riv": 862,
      "ĠThe": 863,
      "ep": 864,
      "count": 865,
      "module": 866,
      "sub": 867,
      "word": 868,
      "MP": 869,
      "ww": 870,
      "RA": 871,
      "000": 872,
      "not": 873,
      "25": 874,
      "red": 875,
      "rror": 876,
      "Ġat": 877,
      "CO": 878,
      "Ġ},": 879,
      "ENT": 880,
      "be": 881,
      "Ġen": 882,
      "mand": 883,
      "ave": 884,
      "mit": 885,
      "aw": 886,
      "ey": 887,
      "ameter": 888,
      "Ġare": 889,
      "Ġk": 890,
      "ome": 891,
      ")))": 892,
      "Set": 893,
      "tern": 894,
      "List": 895,
      "text": 896,
      "Ġadd": 897,
      "99": 898,
      "comp": 899,
      "Ġid": 900,
      "size": 901,
      "\");": 902,
      "ence": 903,
      "Par": 904,
      "ph": 905,
      "ken": 906,
      "version": 907,
      "urrent": 908,
      "ost": 909,
      "unc": 910,
      "min": 911,
      "for": 912,
      "ree": 913,
      "Text": 914,
      "ress": 915,
      "../": 916,
      "clude": 917,
      "ample": 918,
      "cess": 919,
      "ND": 920,
      "rap": 921,
      "config": 922,
      "emp": 923,
      "ptions": 924,
      "ask": 925,
      "ector": 926,
      "Se": 927,
      "qual": 928,
      "his": 929,
      "work": 930,
      "%%": 931,
      "Ġstd": 932,
      "arch": 933,
      "pend": 934,
      "Ġlist": 935,
      "////": 936,
      "oft": 937,
      "ED": 938,
      "AS": 939,
      "Ġass": 940,
      "ong": 941,
      "ery": 942,
      "File": 943,
      "rivate": 944,
      "Ġelse": 945,
      "Un": 946,
      "function": 947,
      "index": 948,
      "core": 949,
      "Ch": 950,
      "${": 951,
      "ide": 952,
      "tx": 953,
      "ccess": 954,
      "idth": 955,
      "ations": 956,
      "Ġsh": 957,
      "################": 958,
      "ING": 959,
      "Ċĉĉĉ": 960,
      "ock": 961,
      "\"\"": 962,
      "Value": 963,
      "nc": 964,
      "AX": 965,
      "ĠIN": 966,
      "ps": 967,
      "ĊĠĠĠĠĠĠ": 968,
      "dir": 969,
      "ma": 970,
      "ee": 971,
      "CH": 972,
      "bin": 973,
      "ues": 974,
      "An": 975,
      "item": 976,
      "Ġ*/": 977,
      "org": 978,
      "mb": 979,
      "DE": 980,
      "param": 981,
      "Test": 982,
      "Ġstr": 983,
      "teger": 984,
      "open": 985,
      "ĠJ": 986,
      "err": 987,
      "less": 988,
      "())": 989,
      "Ap": 990,
      "ĠSt": 991,
      "sys": 992,
      "cho": 993,
      "Error": 994,
      "perty": 995,
      "json": 996,
      "arget": 997,
      "ĊĠĠĠĠĠĠĠĠĠĠĠĠĠ": 998,
      "atic": 999,
      "package": 1000,
      "Ġcan": 1001,
      "go": 1002,
      "ok": 1003,
      "rack": 1004,
      ";;;;": 1005,
      "ount": 1006,
      "ud": 1007,
      "irect": 1008,
      "15": 1009,
      "LA": 1010,
      "ther": 1011,
      "cri": 1012,
      "Ġunder": 1013,
      "Ġnull": 1014,
      "Time": 1015,
      "Ġpublic": 1016,
      "Ġ?": 1017,
      "cord": 1018,
      "ULL": 1019,
      "(),": 1020,
      "lay": 1021,
      "Ġyou": 1022,
      "([": 1023,
      "ithub": 1024,
      "scription": 1025,
      "ings": 1026,
      "Ġup": 1027,
      "rit": 1028,
      "View": 1029,
      "inal": 1030,
      "ody": 1031,
      "ram": 1032,
      "IL": 1033,
      "check": 1034,
      "ream": 1035,
      "Ite": 1036,
      "using": 1037,
      "doc": 1038,
      "čĊĠĠĠ": 1039,
      "api": 1040,
      "($": 1041,
      "ĊĠĠĠĠĠĠĠĠĠĠ": 1042,
      "ual": 1043,
      "roll": 1044,
      "umm": 1045,
      "raw": 1046,
      "by": 1047,
      "ĠTH": 1048,
      "plication": 1049,
      "ssage": 1050,
      "uration": 1051,
      "char": 1052,
      "lean": 1053,
      "fer": 1054,
      "no": 1055,
      "with": 1056,
      "Object": 1057,
      "heck": 1058,
      "inst": 1059,
      "uff": 1060,
      "ise": 1061,
      "ssion": 1062,
      "ĠOR": 1063,
      "State": 1064,
      "istribut": 1065,
      "':": 1066,
      "md": 1067,
      "ilter": 1068,
      "github": 1069,
      "13": 1070,
      "this": 1071,
      "IM": 1072,
      "ĠPro": 1073,
      "late": 1074,
      "ait": 1075,
      "gist": 1076,
      "ates": 1077,
      "space": 1078,
      "back": 1079,
      "):": 1080,
      "ĠCO": 1081,
      "af": 1082,
      "valid": 1083,
      "ton": 1084,
      "AG": 1085,
      "ale": 1086,
      "vel": 1087,
      "Ġu": 1088,
      "ify": 1089,
      "ql": 1090,
      "args": 1091,
      "Ġresult": 1092,
      "pes": 1093,
      "net": 1094,
      "fl": 1095,
      "Ġ///": 1096,
      "ak": 1097,
      "Ġvoid": 1098,
      "gin": 1099,
      "Ġerror": 1100,
      "14": 1101,
      "Ġsub": 1102,
      "cre": 1103,
      "group": 1104,
      "ta": 1105,
      "RUN": 1106,
      "gr": 1107,
      "Ġ10": 1108,
      "py": 1109,
      "Ġwe": 1110,
      "');": 1111,
      "irst": 1112,
      "22": 1113,
      "from": 1114,
      "Ġkey": 1115,
      "UR": 1116,
      "ia": 1117,
      "ark": 1118,
      "play": 1119,
      "Ġdefault": 1120,
      ")]": 1121,
      "><": 1122,
      "ATE": 1123,
      "Comp": 1124,
      "util": 1125,
      "ĊĠĠĠĠĠĠĠĠĠĠĠĠĠĠĠĠĠĠĠĠĠĠĠ": 1126,
      "Ġ[]": 1127,
      "Ġli": 1128,
      "html": 1129,
      "ool": 1130,
      "ĠNOT": 1131,
      "Key": 1132,
      "roid": 1133,
      "Ġser": 1134,
      "ĠY": 1135,
      "start": 1136,
      "ĠNULL": 1137,
      "Get": 1138,
      "print": 1139,
      "Ġrun": 1140,
      "ote": 1141,
      "action": 1142,
      "Ġlo": 1143,
      "201": 1144,
      "dis": 1145,
      "ins": 1146,
      "utton": 1147,
      "da": 1148,
      "image": 1149,
      "Ġread": 1150,
      "ware": 1151,
      "]]": 1152,
      "field": 1153,
      "\";": 1154,
      "ature": 1155,
      "ABLE": 1156,
      "ĠThis": 1157,
      "old": 1158,
      "ush": 1159,
      "US": 1160,
      "title": 1161,
      "ould": 1162,
      "Map": 1163,
      "duct": 1164,
      "label": 1165,
      "ĠĠĠĠĠĠĠĠĠĠĠĠĠĠĠ": 1166,
      "Ġar": 1167,
      "racket": 1168,
      "sponse": 1169,
      "Ġdown": 1170,
      "ages": 1171,
      "ĠEx": 1172,
      "the": 1173,
      "uthor": 1174,
      "Ġ;": 1175,
      "Int": 1176,
      "PI": 1177,
      "link": 1178,
      "ĠOF": 1179,
      "Ġro": 1180,
      "ft": 1181,
      "ifier": 1182,
      "Ġassert": 1183,
      "tt": 1184,
      "}}": 1185,
      "Ġcall": 1186,
      "By": 1187,
      "Color": 1188,
      "Ġcase": 1189,
      "logic": 1190,
      "num": 1191,
      "over": 1192,
      "Ġrequire": 1193,
      "opyright": 1194,
      "ĠĠĠĠĠĠĠĠĠĠ": 1195,
      "node": 1196,
      "script": 1197,
      "br": 1198,
      "18": 1199,
      "ĠUn": 1200,
      "ĠAp": 1201,
      "onent": 1202,
      "db": 1203,
      "čĊč": 1204,
      "air": 1205,
      "Ġdis": 1206,
      "UE": 1207,
      "thod": 1208,
      "ning": 1209,
      "rame": 1210,
      "Ċĉĉĉĉ": 1211,
      "Config": 1212,
      "init": 1213,
      "///": 1214,
      "/*": 1215,
      "Ġ~": 1216,
      "its": 1217,
      "public": 1218,
      "LO": 1219,
      "oin": 1220,
      "Ġ<=": 1221,
      "cond": 1222,
      "Ġwhen": 1223,
      "Com": 1224,
      "19": 1225,
      "Ġspec": 1226,
      "Item": 1227,
      "ĠCon": 1228,
      "input": 1229,
      "state": 1230,
      "require": 1231,
      "Ġle": 1232,
      "indow": 1233,
      "position": 1234,
      "Ġwill": 1235,
      "pen": 1236,
      "ann": 1237,
      "ound": 1238,
      "Ġ8": 1239,
      "Ġnil": 1240,
      "ld": 1241,
      "include": 1242,
      "='": 1243,
      "Ġorg": 1244,
      "ĠĠĠĠĠĠĠĠĠĠĠĠĠ": 1245,
      "Ġconfig": 1246,
      "Ġall": 1247,
      "wh": 1248,
      "Ġ|>": 1249,
      "source": 1250,
      "sign": 1251,
      "Ġ]": 1252,
      "arent": 1253,
      "length": 1254,
      "Ġimp": 1255,
      "Ġ7": 1256,
      "build": 1257,
      "nection": 1258,
      "AC": 1259,
      "sed": 1260,
      "ception": 1261,
      "33": 1262,
      "Ġz": 1263,
      "max": 1264,
      "().": 1265,
      "mon": 1266,
      "ride": 1267,
      "Tr": 1268,
      "Array": 1269,
      "Ġ00": 1270,
      "try": 1271,
      "ĠTO": 1272,
      "Ġhe": 1273,
      "att": 1274,
      "create": 1275,
      "ns": 1276,
      "DI": 1277,
      "].": 1278,
      "Ġ((": 1279,
      "do": 1280,
      "Ġuser": 1281,
      "User": 1282,
      "[\"": 1283,
      "pub": 1284,
      "du": 1285,
      "ices": 1286,
      "['": 1287,
      "ell": 1288,
      "********************************": 1289,
      "ick": 1290,
      "mage": 1291,
      "Ġ[\"": 1292,
      "Met": 1293,
      "lection": 1294,
      "Ġ6": 1295,
      "cept": 1296,
      "ses": 1297,
      "base": 1298,
      "view": 1299,
      "ie": 1300,
      "ĠIS": 1301,
      "call": 1302,
      "essage": 1303,
      "we": 1304,
      "Ġ()": 1305,
      "mt": 1306,
      "Of": 1307,
      "rol": 1308,
      "The": 1309,
      "Ġcol": 1310,
      "loat": 1311,
      "ative": 1312,
      "ler": 1313,
      "Request": 1314,
      "ild": 1315,
      "span": 1316,
      "hould": 1317,
      "ook": 1318,
      "bar": 1319,
      "cript": 1320,
      "ĠPIC": 1321,
      "uilder": 1322,
      "})": 1323,
      "čĊĠĠĠĠĠĠĠ": 1324,
      "24": 1325,
      "face": 1326,
      "Ġcode": 1327,
      "\"))": 1328,
      "env": 1329,
      "ute": 1330,
      "lob": 1331,
      "struct": 1332,
      "info": 1333,
      "ainer": 1334,
      "Ġinstall": 1335,
      "></": 1336,
      "VAL": 1337,
      "17": 1338,
      "oftware": 1339,
      "ATA": 1340,
      "Ġsc": 1341,
      "Context": 1342,
      "gre": 1343,
      "bl": 1344,
      "query": 1345,
      "ager": 1346,
      "Ġother": 1347,
      "EX": 1348,
      "Size": 1349,
      "Ġversion": 1350,
      "``": 1351,
      "(_": 1352,
      "andle": 1353,
      "Ġbuild": 1354,
      "mov": 1355,
      "ET": 1356,
      "Ġ9": 1357,
      "ava": 1358,
      "Ġdistribut": 1359,
      "angu": 1360,
      "di": 1361,
      "Add": 1362,
      "mat": 1363,
      "lete": 1364,
      "ĠSystem": 1365,
      "top": 1366,
      "04": 1367,
      "axis": 1368,
      "Out": 1369,
      "---": 1370,
      "Ġpath": 1371,
      "so": 1372,
      "IG": 1373,
      "nd": 1374,
      "table": 1375,
      "ummary": 1376,
      "pendenc": 1377,
      "ces": 1378,
      "result": 1379,
      "ä¸": 1380,
      "Sh": 1381,
      "true": 1382,
      "rary": 1383,
      "run": 1384,
      "']": 1385,
      "style": 1386,
      "output": 1387,
      "bug": 1388,
      "ission": 1389,
      "ical": 1390,
      "status": 1391,
      "ĊĊĠĠĠĠĠ": 1392,
      "ines": 1393,
      "75": 1394,
      "default": 1395,
      "Ġ!=": 1396,
      "lease": 1397,
      "content": 1398,
      "roller": 1399,
      "Ġprivate": 1400,
      "ility": 1401,
      "ov": 1402,
      "23": 1403,
      "Ġ{:": 1404,
      "src": 1405,
      "ich": 1406,
      "ĠRE": 1407,
      "ension": 1408,
      "Ġfn": 1409,
      "Ġexpect": 1410,
      "ĠAN": 1411,
      "oint": 1412,
      "Ġsy": 1413,
      "iable": 1414,
      "AME": 1415,
      "ĠVAL": 1416,
      "uffer": 1417,
      "her": 1418,
      "oolean": 1419,
      "ILE": 1420,
      "âĶ": 1421,
      "Ġstart": 1422,
      "stra": 1423,
      "my": 1424,
      "Ġ${": 1425,
      "100": 1426,
      "uf": 1427,
      "clo": 1428,
      "trans": 1429,
      "model": 1430,
      "www": 1431,
      "Model": 1432,
      "\\\\": 1433,
      "Man": 1434,
      "AN": 1435,
      "Ġmay": 1436,
      "ding": 1437,
      "plo": 1438,
      "object": 1439,
      "ply": 1440,
      "dev": 1441,
      "02": 1442,
      "vector": 1443,
      "Ġinit": 1444,
      "fun": 1445,
      "assert": 1446,
      "ĠDE": 1447,
      "Ġdownto": 1448,
      "Ġyour": 1449,
      "08": 1450,
      "sing": 1451,
      "ĉĉĉĉ": 1452,
      "Ġext": 1453,
      "Ġ:-": 1454,
      "He": 1455,
      "Message": 1456,
      "03": 1457,
      "temp": 1458,
      "ĠCON": 1459,
      "move": 1460,
      "({": 1461,
      "Ġab": 1462,
      "Info": 1463,
      "Ġover": 1464,
      "ustom": 1465,
      "Ġ\"^": 1466,
      "led": 1467,
      "ift": 1468,
      "Element": 1469,
      "context": 1470,
      "Ġtext": 1471,
      "upport": 1472,
      "INT": 1473,
      "Result": 1474,
      "mod": 1475,
      "ng": 1476,
      "ponse": 1477,
      "fore": 1478,
      "mpty": 1479,
      "pr": 1480,
      "ULT": 1481,
      "Log": 1482,
      "point": 1483,
      "gram": 1484,
      "Ġ,": 1485,
      "case": 1486,
      "./": 1487,
      "expect": 1488,
      "SS": 1489,
      "Ġrequest": 1490,
      "ced": 1491,
      "mem": 1492,
      "Client": 1493,
      "UM": 1494,
      "Ġsize": 1495,
      "opt": 1496,
      "ATION": 1497,
      "MO": 1498,
      "Ġwhere": 1499,
      "void": 1500,
      "Ġlog": 1501,
      "(:": 1502,
      "ined": 1503,
      "As": 1504,
      "ĠINT": 1505,
      "Ġshould": 1506,
      "================================": 1507,
      "Ġstate": 1508,
      "OP": 1509,
      "ĠDe": 1510,
      "rl": 1511,
      "Code": 1512,
      "Form": 1513,
      "anguage": 1514,
      "ified": 1515,
      "event": 1516,
      "ox": 1517,
      "gister": 1518,
      "ision": 1519,
      "ader": 1520,
      "inter": 1521,
      "assword": 1522,
      "ific": 1523,
      "main": 1524,
      "raph": 1525,
      "cp": 1526,
      "Ġmod": 1527,
      "ĠGet": 1528,
      "ags": 1529,
      "PY": 1530,
      "fg": 1531,
      "cs": 1532,
      "ux": 1533,
      "orre": 1534,
      "part": 1535,
      "ĠAr": 1536,
      "DATA": 1537,
      "ternal": 1538,
      "Proposition": 1539,
      "](": 1540,
      "}\"": 1541,
      "Image": 1542,
      "VE": 1543,
      "color": 1544,
      "Ġstruct": 1545,
      "ateg": 1546,
      "ally": 1547,
      "pression": 1548,
      "LL": 1549,
      "ics": 1550,
      "MENT": 1551,
      "Ġ201": 1552,
      "vert": 1553,
      "gle": 1554,
      "export": 1555,
      "Class": 1556,
      "term": 1557,
      "annel": 1558,
      "Event": 1559,
      "cle": 1560,
      "READ": 1561,
      "CL": 1562,
      "ification": 1563,
      "HO": 1564,
      "Ġwork": 1565,
      "Parameter": 1566,
      "clk": 1567,
      "ĠTHE": 1568,
      "'s": 1569,
      "55": 1570,
      "ugin": 1571,
      "order": 1572,
      "lineProposition": 1573,
      "83": 1574,
      "mm": 1575,
      "Ġcheck": 1576,
      "Ġne": 1577,
      "server": 1578,
      "Ġchar": 1579,
      "));": 1580,
      "Ġob": 1581,
      "'(": 1582,
      "Ġhref": 1583,
      "ĠInt": 1584,
      "With": 1585,
      "ĠRes": 1586,
      "current": 1587,
      "Ġobject": 1588,
      "ROM": 1589,
      "ĠĠĠĠĠĠĠĠĠĠĠĠĠĠĠĠĠĠĠ": 1590,
      "ollow": 1591,
      "message": 1592,
      "git": 1593,
      "ĠCopyright": 1594,
      "ypes": 1595,
      "sw": 1596,
      "Ġerr": 1597,
      "scrib": 1598,
      "inx": 1599,
      "ĠAND": 1600,
      "FA": 1601,
      "Ġhttp": 1602,
      "SET": 1603,
      "NTI": 1604,
      "null": 1605,
      "Ġinter": 1606,
      "Ġstatic": 1607,
      "func": 1608,
      "rx": 1609,
      "adata": 1610,
      "header": 1611,
      "Ġmap": 1612,
      "ater": 1613,
      "Ġpre": 1614,
      "ends": 1615,
      "MA": 1616,
      "Ġ\"$": 1617,
      "ization": 1618,
      "Up": 1619,
      "td": 1620,
      "Ġtry": 1621,
      "az": 1622,
      "uble": 1623,
      "write": 1624,
      "width": 1625,
      "eature": 1626,
      "))))": 1627,
      "VER": 1628,
      "should": 1629,
      "Ġmy": 1630,
      "Date": 1631,
      "ĊĠĠĠĠĠĠĠĠĠĠĠĠĠĠĠĠĠĠĠĠĠĠĠĠĠĠĠ": 1632,
      "ĠWAR": 1633,
      "stract": 1634,
      "PE": 1635,
      "čĊĠ": 1636,
      "Ġmust": 1637,
      "ner": 1638,
      "vid": 1639,
      "ĠSe": 1640,
      "Ġlib": 1641,
      "posit": 1642,
      "Status": 1643,
      "ĠSet": 1644,
      "Th": 1645,
      "client": 1646,
      "Ġfun": 1647,
      "Ġprint": 1648,
      "tings": 1649,
      "mode": 1650,
      "ams": 1651,
      "Ġmax": 1652,
      "Ġ||": 1653,
      "Or": 1654,
      "čĊĠĠĠĠĠĠĠĠĠĠĠ": 1655,
      "AGE": 1656,
      "Ġcreate": 1657,
      "ĠANY": 1658,
      "Ġarg": 1659,
      "Ġdistributed": 1660,
      "summary": 1661,
      "ors": 1662,
      "////////": 1663,
      "plic": 1664,
      "Ġhttps": 1665,
      "sync": 1666,
      "px": 1667,
      "Ġmatch": 1668,
      "ĠĠĠĠĠĠĠĠĠĠĠĠ": 1669,
      "34": 1670,
      "ear": 1671,
      "Version": 1672,
      "Qu": 1673,
      "...": 1674,
      "Ġsource": 1675,
      "Ġ/>": 1676,
      "09": 1677,
      "rim": 1678,
      "Al": 1679,
      "Index": 1680,
      "ĠWARRA": 1681,
      "ros": 1682,
      "andler": 1683,
      "Ġevent": 1684,
      "man": 1685,
      "Ġcurrent": 1686,
      "VALID": 1687,
      "56": 1688,
      "Ġused": 1689,
      "ank": 1690,
      "Ġent": 1691,
      "Ġnode": 1692,
      "ĠST": 1693,
      "make": 1694,
      "down": 1695,
      "gt": 1696,
      "ecut": 1697,
      "26": 1698,
      "ccount": 1699,
      "description": 1700,
      "For": 1701,
      "#'": 1702,
      "Ġnumber": 1703,
      "Field": 1704,
      "Col": 1705,
      "Response": 1706,
      "ĊĠĠĠĠĠĠĠĠĠĠĠĠĠĠ": 1707,
      "iter": 1708,
      "Count": 1709,
      "PO": 1710,
      "older": 1711,
      "ĊĊĠĠ": 1712,
      "xic": 1713,
      "request": 1714,
      "body": 1715,
      "AXIS": 1716,
      "sche": 1717,
      "equal": 1718,
      "Ġperm": 1719,
      "[]": 1720,
      "Ġright": 1721,
      "Ġport": 1722,
      "cd": 1723,
      "uper": 1724,
      "Ġreg": 1725,
      "Ġ*)": 1726,
      "umn": 1727,
      "Node": 1728,
      "76": 1729,
      "','": 1730,
      "Att": 1731,
      "Ġtrans": 1732,
      "lobal": 1733,
      "ĠCont": 1734,
      "serv": 1735,
      "};": 1736,
      "ca": 1737,
      "toxic": 1738,
      "'$": 1739,
      "ts": 1740,
      "28": 1741,
      "ĠPRO": 1742,
      "tes": 1743,
      "irectory": 1744,
      "Ġgroup": 1745,
      "std": 1746,
      "Ġpart": 1747,
      ";;;;;;;;": 1748,
      "Ġcontext": 1749,
      "ĠVal": 1750,
      "Def": 1751,
      "----------------------------------------------------------------": 1752,
      "DIR": 1753,
      "').": 1754,
      "round": 1755,
      "ĠList": 1756,
      "ilinx": 1757,
      "Ġhas": 1758,
      "ens": 1759,
      "{{": 1760,
      "Ġ**": 1761,
      "fn": 1762,
      "ci": 1763,
      "ãĢ": 1764,
      "Des": 1765,
      "[[": 1766,
      "Ġ);": 1767,
      "\"></": 1768,
      "ish": 1769,
      "05": 1770,
      "su": 1771,
      "rid": 1772,
      "Ġgener": 1773,
      "cedure": 1774,
      "Ġcl": 1775,
      "iven": 1776,
      "Service": 1777,
      "web": 1778,
      "ions": 1779,
      "spec": 1780,
      "ized": 1781,
      "yn": 1782,
      "Ġsu": 1783,
      "Ġmodule": 1784,
      "ready": 1785,
      "foo": 1786,
      "gs": 1787,
      "Ġnum": 1788,
      "System": 1789,
      "Be": 1790,
      "TER": 1791,
      "Ġusing": 1792,
      "\").": 1793,
      "wait": 1794,
      "block": 1795,
      "ĠTest": 1796,
      "Ġindex": 1797,
      "pan": 1798,
      "Ġhave": 1799,
      "Exception": 1800,
      "parse": 1801,
      "IF": 1802,
      "Server": 1803,
      "86": 1804,
      "IO": 1805,
      "lang": 1806,
      "root": 1807,
      "df": 1808,
      "queue": 1809,
      "._": 1810,
      "CRE": 1811,
      "Ġtable": 1812,
      "Ġsrc": 1813,
      "Ġgo": 1814,
      "Inst": 1815,
      "Ġ32": 1816,
      "tmp": 1817,
      "ribute": 1818,
      "author": 1819,
      "select": 1820,
      "project": 1821,
      "On": 1822,
      "Ġpl": 1823,
      "cache": 1824,
      "Not": 1825,
      "echo": 1826,
      "SP": 1827,
      "frame": 1828,
      "cur": 1829,
      "CTION": 1830,
      "Command": 1831,
      "Ġno": 1832,
      "ffset": 1833,
      "'t": 1834,
      "entifier": 1835,
      "READY": 1836,
      "31": 1837,
      "host": 1838,
      "instance": 1839,
      "Pl": 1840,
      "til": 1841,
      "ui": 1842,
      "IP": 1843,
      "Ġwhich": 1844,
      "ating": 1845,
      "tract": 1846,
      "plit": 1847,
      "Ref": 1848,
      "lex": 1849,
      "Ġcopy": 1850,
      "Ġrel": 1851,
      "Write": 1852,
      "bit": 1853,
      "88": 1854,
      "21": 1855,
      "osition": 1856,
      "LIC": 1857,
      "thon": 1858,
      "Ġresponse": 1859,
      "Ġandroid": 1860,
      "ĠTABLE": 1861,
      "Ab": 1862,
      "SER": 1863,
      "private": 1864,
      "Ġfinal": 1865,
      "location": 1866,
      "27": 1867,
      "ĠTr": 1868,
      "verse": 1869,
      "ormal": 1870,
      "false": 1871,
      "Ġfunc": 1872,
      "Ġus": 1873,
      "itor": 1874,
      "Ġcontent": 1875,
      "pm": 1876,
      "eturn": 1877,
      "Ġdoc": 1878,
      "iff": 1879,
      "DO": 1880,
      "idget": 1881,
      "-(": 1882,
      "timelineProposition": 1883,
      "06": 1884,
      "Ġper": 1885,
      "Ġsign": 1886,
      "ĠCh": 1887,
      "ains": 1888,
      "Ġonly": 1889,
      "(.": 1890,
      "orage": 1891,
      "Stream": 1892,
      "NTIES": 1893,
      "ĠWARRANTIES": 1894,
      "son": 1895,
      "Controller": 1896,
      "NAME": 1897,
      "apache": 1898,
      "stamp": 1899,
      "ĠĠĠĠĠĠĠĠĠĠĠĠĠĠ": 1900,
      "Ġact": 1901,
      "!(": 1902,
      "Ġinto": 1903,
      "cent": 1904,
      "Ġline": 1905,
      "ĠXilinx": 1906,
      "Ġ\"\\": 1907,
      "=$": 1908,
      "Ġad": 1909,
      "Le": 1910,
      "img": 1911,
      "perties": 1912,
      "Ġvalues": 1913,
      "nect": 1914,
      "Ġjs": 1915,
      "IB": 1916,
      "ĠEX": 1917,
      "Ġbase": 1918,
      "tect": 1919,
      "AM": 1920,
      "CE": 1921,
      "TH": 1922,
      "format": 1923,
      "pendencies": 1924,
      "ible": 1925,
      "Ġfollow": 1926,
      "ential": 1927,
      "Ġstyle": 1928,
      "ĠData": 1929,
      "target": 1930,
      "Ġitem": 1931,
      "Ġmethod": 1932,
      "Ġprov": 1933,
      "Ġupdate": 1934,
      "formation": 1935,
      "Ġlocal": 1936,
      "Dis": 1937,
      "pository": 1938,
      "Ġmessage": 1939,
      "ĠWIT": 1940,
      "service": 1941,
      "ï¼": 1942,
      "option": 1943,
      "sent": 1944,
      "Group": 1945,
      "29": 1946,
      "Ġ($": 1947,
      "/>": 1948,
      "lp": 1949,
      "Ġone": 1950,
      "../../": 1951,
      "50": 1952,
      "pair": 1953,
      "hash": 1954,
      "FAULT": 1955,
      "conf": 1956,
      "Ġmem": 1957,
      "New": 1958,
      "iron": 1959,
      "aly": 1960,
      "200": 1961,
      "Ġ\"\"\"": 1962,
      "cfg": 1963,
      "Ġlicense": 1964,
      "Ġparse": 1965,
      "aut": 1966,
      "ocket": 1967,
      "ower": 1968,
      "Ġ>>": 1969,
      "ments": 1970,
      "enu": 1971,
      "lin": 1972,
      "Ġ...": 1973,
      "abled": 1974,
      "token": 1975,
      "ĠMap": 1976,
      "ĊĠĠĠĠĠĠĠĠĠĠĠĠĠĠĠĠĠ": 1977,
      "box": 1978,
      "Ġcolor": 1979,
      "Ġgiven": 1980,
      "Sub": 1981,
      "mbol": 1982,
      "match": 1983,
      "(*": 1984,
      "Ġarray": 1985,
      "OF": 1986,
      "Inter": 1987,
      "any": 1988,
      "Style": 1989,
      "!--": 1990,
      "Ġapplication": 1991,
      "End": 1992,
      "etc": 1993,
      "icon": 1994,
      "Ġwrit": 1995,
      "ialize": 1996,
      "ackage": 1997,
      "ik": 1998,
      "36": 1999,
      "fix": 2000,
      "Var": 2001,
      "tom": 2002,
      "arn": 2003,
      "dart": 2004,
      "ename": 2005,
      "Ġparameter": 2006,
      "TE": 2007,
      "cr": 2008,
      "usr": 2009,
      "HT": 2010,
      "\"),": 2011,
      "47": 2012,
      "cal": 2013,
      "Ġrequired": 2014,
      "idd": 2015,
      "UB": 2016,
      "uments": 2017,
      "hod": 2018,
      "ĠSer": 2019,
      "elf": 2020,
      "App": 2021,
      "Ġfield": 2022,
      "aster": 2023,
      "((": 2024,
      "Equal": 2025,
      "ĠNone": 2026,
      "AP": 2027,
      "oogle": 2028,
      "(&": 2029,
      "response": 2030,
      "has": 2031,
      "'),": 2032,
      "Ġ('": 2033,
      "unter": 2034,
      "Ġwrite": 2035,
      "################################": 2036,
      "hell": 2037,
      "met": 2038,
      "ĠDIS": 2039,
      "len": 2040,
      "Ġfl": 2041,
      "params": 2042,
      "Ġimport": 2043,
      "ren": 2044,
      "Ġfail": 2045,
      "gn": 2046,
      "Ġso": 2047,
      "CON": 2048,
      "ump": 2049,
      "Âł": 2050,
      "sql": 2051,
      "ĠFOR": 2052,
      "Ro": 2053,
      "Ġfirst": 2054,
      "ĠFile": 2055,
      "ntax": 2056,
      "Ġform": 2057,
      "sg": 2058,
      "erson": 2059,
      "sl": 2060,
      "filter": 2061,
      "Module": 2062,
      "emplate": 2063,
      "Input": 2064,
      "license": 2065,
      "method": 2066,
      "ITY": 2067,
      "Ġsoftware": 2068,
      "Ġimage": 2069,
      "30": 2070,
      "Action": 2071,
      "Spec": 2072,
      "last": 2073,
      "PRO": 2074,
      ")),": 2075,
      "Ġshow": 2076,
      "OL": 2077,
      "KE": 2078,
      "Ġlabel": 2079,
      "afe": 2080,
      "imer": 2081,
      "ĠSee": 2082,
      "\",\"": 2083,
      "Ġlength": 2084,
      "Manager": 2085,
      "Ġapp": 2086,
      "vider": 2087,
      "ither": 2088,
      "++": 2089,
      "icros": 2090,
      "Ġaction": 2091,
      "ble": 2092,
      "Ġeq": 2093,
      "Ġ%}": 2094,
      "Ġinteger": 2095,
      ".\"": 2096,
      "icrosoft": 2097,
      "sm": 2098,
      "ĠAn": 2099,
      "anch": 2100,
      "ground": 2101,
      "------------": 2102,
      "store": 2103,
      "email": 2104,
      "Ġ05": 2105,
      "Loc": 2106,
      "Ġmodel": 2107,
      "Ġprocess": 2108,
      "Ġqu": 2109,
      "height": 2110,
      "ART": 2111,
      "ESS": 2112,
      "itch": 2113,
      "Number": 2114,
      "unit": 2115,
      "Ġ20": 2116,
      "rie": 2117,
      "66": 2118,
      "iled": 2119,
      "EL": 2120,
      "indows": 2121,
      "gen": 2122,
      "Ġmake": 2123,
      "eq": 2124,
      "xy": 2125,
      "meta": 2126,
      "rop": 2127,
      "vis": 2128,
      "000000": 2129,
      ">>": 2130,
      "35": 2131,
      "files": 2132,
      "ĠName": 2133,
      "ATH": 2134,
      "locator": 2135,
      "Ġextends": 2136,
      "Sche": 2137,
      "etch": 2138,
      "ifact": 2139,
      "ĠText": 2140,
      "number": 2141,
      "Ġinstance": 2142,
      "Ġtarget": 2143,
      "Ġ\"/": 2144,
      "}.": 2145,
      "ference": 2146,
      "scribe": 2147,
      "Base": 2148,
      "ORT": 2149,
      "integer": 2150,
      "Ġelement": 2151,
      "Ġlimit": 2152,
      "mut": 2153,
      "oth": 2154,
      "Ġ..": 2155,
      "ENV": 2156,
      "Ġecho": 2157,
      "ĊĊĠĠĠĠĠĠĠĠĠĠĠ": 2158,
      "Access": 2159,
      "Source": 2160,
      "options": 2161,
      "place": 2162,
      "Content": 2163,
      "array": 2164,
      "andom": 2165,
      "ironment": 2166,
      "Ġenv": 2167,
      "php": 2168,
      "Dir": 2169,
      "ML": 2170,
      "defined": 2171,
      "find": 2172,
      "ĊĠĠĠĠĠĠĠĠĠĠĠĠ": 2173,
      "apt": 2174,
      "Ġvariable": 2175,
      "Ġcal": 2176,
      "Ġbool": 2177,
      "Table": 2178,
      "tag": 2179,
      "From": 2180,
      "Build": 2181,
      "refer": 2182,
      "command": 2183,
      "Ġurl": 2184,
      "Property": 2185,
      "Mem": 2186,
      "ources": 2187,
      "ĠDEFAULT": 2188,
      "ln": 2189,
      "xml": 2190,
      "48": 2191,
      "ret": 2192,
      "press": 2193,
      "77": 2194,
      "Builder": 2195,
      "Ġargs": 2196,
      "post": 2197,
      "update": 2198,
      "END": 2199,
      "CR": 2200,
      "ENSE": 2201,
      "ttp": 2202,
      "Ġapt": 2203,
      "Ġdescription": 2204,
      "Ġ+=": 2205,
      "COPY": 2206,
      "dition": 2207,
      "Ġ\"\"": 2208,
      "amb": 2209,
      "Ġwas": 2210,
      "acter": 2211,
      "EC": 2212,
      "ĠSome": 2213,
      "ared": 2214,
      "types": 2215,
      "ALL": 2216,
      "IV": 2217,
      "ERR": 2218,
      "Ġfollowing": 2219,
      "40": 2220,
      "Ġimplement": 2221,
      "PUT": 2222,
      "card": 2223,
      "ities": 2224,
      "section": 2225,
      "45": 2226,
      "push": 2227,
      "system": 2228,
      "SION": 2229,
      "ats": 2230,
      "wo": 2231,
      "install": 2232,
      "values": 2233,
      "attern": 2234,
      "gener": 2235,
      "Ġlaw": 2236,
      "ARE": 2237,
      "Ġtoken": 2238,
      "ultip": 2239,
      "Ġ<<": 2240,
      "android": 2241,
      "Ġ__": 2242,
      "Util": 2243,
      "Button": 2244,
      "ĊĠĠĠĠĊĠĠĠ": 2245,
      "ĠAS": 2246,
      "button": 2247,
      "plugin": 2248,
      "Block": 2249,
      "Ġel": 2250,
      "Function": 2251,
      "ĠValue": 2252,
      "ipe": 2253,
      "Str": 2254,
      "ĠYou": 2255,
      "ĠVersion": 2256,
      "zip": 2257,
      "Ġco": 2258,
      "Ġmore": 2259,
      "sha": 2260,
      "]{": 2261,
      "Ġì": 2262,
      "only": 2263,
      "board": 2264,
      "si": 2265,
      "Ġoption": 2266,
      "abase": 2267,
      "UP": 2268,
      "first": 2269,
      "Ġ-->": 2270,
      "Ġopen": 2271,
      "ĠQ": 2272,
      "Ġblock": 2273,
      "Ġbut": 2274,
      "imple": 2275,
      "level": 2276,
      "Ġpub": 2277,
      "80": 2278,
      "ven": 2279,
      "ĠIf": 2280,
      "vices": 2281,
      "Ġrecord": 2282,
      "ĠID": 2283,
      "sum": 2284,
      "namespace": 2285,
      "mail": 2286,
      "headers": 2287,
      "Method": 2288,
      "pri": 2289,
      "ĠVALUE": 2290,
      "flow": 2291,
      "åı": 2292,
      "ason": 2293,
      "Ġ}}": 2294,
      "Url": 2295,
      "Auth": 2296,
      "property": 2297,
      "inary": 2298,
      "Ġvalid": 2299,
      "YPE": 2300,
      "buf": 2301,
      "Ġ16": 2302,
      "EG": 2303,
      "ays": 2304,
      "Task": 2305,
      "Ġdoes": 2306,
      "product": 2307,
      "pairing": 2308,
      "96": 2309,
      "WOR": 2310,
      "ĠINTO": 2311,
      "utf": 2312,
      "Trans": 2313,
      "ume": 2314,
      "lt": 2315,
      "Ġtra": 2316,
      "Start": 2317,
      "DB": 2318,
      "zer": 2319,
      "\"><": 2320,
      "process": 2321,
      "mark": 2322,
      "Options": 2323,
      "`,": 2324,
      "expected": 2325,
      "ailable": 2326,
      "ĠComp": 2327,
      "ability": 2328,
      "parent": 2329,
      "38": 2330,
      "Ġproject": 2331,
      "cat": 2332,
      "Ġ./": 2333,
      "ĠKey": 2334,
      "Ġclient": 2335,
      "Ġwidth": 2336,
      "vo": 2337,
      "All": 2338,
      "{\"": 2339,
      "Ġq": 2340,
      "home": 2341,
      "page": 2342,
      "}/": 2343,
      ")).": 2344,
      "Ġio": 2345,
      "46": 2346,
      "addr": 2347,
      "utils": 2348,
      "Query": 2349,
      "Ġsystem": 2350,
      "Create": 2351,
      "tool": 2352,
      "erge": 2353,
      "defn": 2354,
      "can": 2355,
      "Fact": 2356,
      "ailed": 2357,
      "artifact": 2358,
      "sets": 2359,
      "Ġ200": 2360,
      "atform": 2361,
      "search": 2362,
      "PRE": 2363,
      "Ġoverride": 2364,
      "Box": 2365,
      "rel": 2366,
      "ĠĠĠĠĠĠĠĠĠĠĠĠĠĠĠĠĠ": 2367,
      "Ġind": 2368,
      "atabase": 2369,
      "Doc": 2370,
      "pc": 2371,
      "UES": 2372,
      "Ġmin": 2373,
      "Page": 2374,
      "Ðµ": 2375,
      "example": 2376,
      "IND": 2377,
      "Ġprocedure": 2378,
      "SERT": 2379,
      "Ġcorre": 2380,
      "ĠAll": 2381,
      "ĠMO": 2382,
      "Ġcommand": 2383,
      "rix": 2384,
      "Cl": 2385,
      ",'": 2386,
      "wrap": 2387,
      "ategory": 2388,
      "hy": 2389,
      "mac": 2390,
      "37": 2391,
      "empty": 2392,
      "Sy": 2393,
      "change": 2394,
      "FILE": 2395,
      "entity": 2396,
      "Ġoper": 2397,
      "Ġback": 2398,
      "čĊĠĠĠĠĠ": 2399,
      "otal": 2400,
      "leg": 2401,
      "97": 2402,
      "component": 2403,
      "ause": 2404,
      "onth": 2405,
      "Ġopt": 2406,
      "omain": 2407,
      "untime": 2408,
      "semb": 2409,
      "debug": 2410,
      "tra": 2411,
      "Ġproduct": 2412,
      "MS": 2413,
      "Ġed": 2414,
      "Hel": 2415,
      "req": 2416,
      "ython": 2417,
      "Imp": 2418,
      "proc": 2419,
      "ular": 2420,
      "velo": 2421,
      "common": 2422,
      "Line": 2423,
      "____": 2424,
      "gment": 2425,
      "Ġspecific": 2426,
      "very": 2427,
      "Offset": 2428,
      "record": 2429,
      "olic": 2430,
      "join": 2431,
      "ender": 2432,
      "ient": 2433,
      "fter": 2434,
      "Call": 2435,
      "tree": 2436,
      "ĠÐ": 2437,
      "reset": 2438,
      "ambda": 2439,
      "Ġ36": 2440,
      "reg": 2441,
      "Ġoptions": 2442,
      "Ġbegin": 2443,
      "inition": 2444,
      "plicable": 2445,
      "Ġrights": 2446,
      "Mode": 2447,
      "cription": 2448,
      "uilt": 2449,
      "{}": 2450,
      "LOG": 2451,
      "ĠWH": 2452,
      "Ġhere": 2453,
      "mote": 2454,
      "Account": 2455,
      "rypt": 2456,
      "ARG": 2457,
      "Ġapplicable": 2458,
      "igh": 2459,
      "IONS": 2460,
      "ala": 2461,
      "():": 2462,
      "FOR": 2463,
      "mount": 2464,
      "This": 2465,
      "Ġtitle": 2466,
      "tected": 2467,
      "ict": 2468,
      "Instance": 2469,
      "Token": 2470,
      "ants": 2471,
      "uid": 2472,
      "sole": 2473,
      "dp": 2474,
      "Ġjava": 2475,
      "obj": 2476,
      "Ed": 2477,
      "ias": 2478,
      "Output": 2479,
      "Ġterm": 2480,
      "Ġpermission": 2481,
      "ĠPar": 2482,
      "txt": 2483,
      "',@": 2484,
      "Vector": 2485,
      "ottom": 2486,
      "[:": 2487,
      "begin": 2488,
      "Ġproperty": 2489,
      "Ġfiles": 2490,
      "AXI": 2491,
      "boot": 2492,
      "FROM": 2493,
      "QL": 2494,
      "show": 2495,
      "tocol": 2496,
      "ributes": 2497,
      "ĠĊ": 2498,
      "Ġload": 2499,
      "URL": 2500,
      "âĶĢ": 2501,
      "TP": 2502,
      "aterial": 2503,
      "Ġview": 2504,
      "reak": 2505,
      "keys": 2506,
      "ĠZ": 2507,
      "layout": 2508,
      "byte": 2509,
      "ctx": 2510,
      "Is": 2511,
      "next": 2512,
      "INSERT": 2513,
      "good": 2514,
      "Change": 2515,
      "ĠSh": 2516,
      "Ġorder": 2517,
      "signed": 2518,
      "kg": 2519,
      "çļ": 2520,
      "Ġra": 2521,
      "Ġ),": 2522,
      "address": 2523,
      "Co": 2524,
      "Ġwithout": 2525,
      "Ġcre": 2526,
      "čĊĉ": 2527,
      "Ġmov": 2528,
      "Default": 2529,
      "Unit": 2530,
      "çļĦ": 2531,
      "-_": 2532,
      "Ġ})": 2533,
      "Ġvarchar": 2534,
      "\\\"": 2535,
      "ided": 2536,
      "IST": 2537,
      "ĠVALUES": 2538,
      "FF": 2539,
      "ingle": 2540,
      ")\"": 2541,
      "[(": 2542,
      "{%": 2543,
      "Ġ],": 2544,
      "Ġ{}": 2545,
      "Ġdocument": 2546,
      "Lo": 2547,
      "07": 2548,
      "Ġeither": 2549,
      "Ġ(*": 2550,
      "Ġcount": 2551,
      "hed": 2552,
      "ĠState": 2553,
      "uter": 2554,
      "ivity": 2555,
      "ting": 2556,
      "present": 2557,
      "AW": 2558,
      "CREATE": 2559,
      "css": 2560,
      "Ġsp": 2561,
      "ĠâĶ": 2562,
      "#{": 2563,
      "Ġ100": 2564,
      "ilename": 2565,
      "!!": 2566,
      "names": 2567,
      "59": 2568,
      "Ġsupport": 2569,
      "append": 2570,
      "Point": 2571,
      "UD": 2572,
      "library": 2573,
      "Ġloss": 2574,
      "Ġconnection": 2575,
      "Ġfind": 2576,
      "EP": 2577,
      "tain": 2578,
      "ãĥ¼": 2579,
      "Ð°": 2580,
      "Ġhandle": 2581,
      "Ġsignal": 2582,
      "Ġmat": 2583,
      "];": 2584,
      "39": 2585,
      "Ġ01": 2586,
      "Ad": 2587,
      "Filter": 2588,
      "VERSION": 2589,
      "SON": 2590,
      "element": 2591,
      "Ġ};": 2592,
      "No": 2593,
      "Sp": 2594,
      "Ġtag": 2595,
      "87": 2596,
      "lish": 2597,
      ":(": 2598,
      "car": 2599,
      "amage": 2600,
      "ĠArray": 2601,
      "uto": 2602,
      "Ġformat": 2603,
      "\"\"\"": 2604,
      "ists": 2605,
      "quence": 2606,
      "ĠEn": 2607,
      "Ġeach": 2608,
      "At": 2609,
      "left": 2610,
      "ĠGener": 2611,
      "Ob": 2612,
      "ploy": 2613,
      "ADD": 2614,
      "44": 2615,
      "cope": 2616,
      "uck": 2617,
      "ĠTo": 2618,
      "goal": 2619,
      "Ġstatus": 2620,
      "INE": 2621,
      "Gener": 2622,
      "Ġinformation": 2623,
      "Ġge": 2624,
      "coding": 2625,
      "lied": 2626,
      "Run": 2627,
      "256": 2628,
      "pop": 2629,
      "Ġ#{": 2630,
      "ANT": 2631,
      "-_-_": 2632,
      "ASE": 2633,
      "Ġaccess": 2634,
      "Ġserver": 2635,
      "FORM": 2636,
      "Web": 2637,
      "zure": 2638,
      "Valid": 2639,
      "auth": 2640,
      "intf": 2641,
      "Lay": 2642,
      "ILITY": 2643,
      "ãģ®": 2644,
      "fr": 2645,
      "ails": 2646,
      "ĠĠĠĠĠĠĠĠĠĠĠĠĠĠĠĠĠĠĠĠĠĠĠĠĠĠĠĠĠĠĠĠĠĠĠĠĠĠĠĠĠĠĠĠĠĠĠĠĠĠĠĠĠĠĠĠĠĠĠĠĠĠĠĠ": 2647,
      "Ġreal": 2648,
      "Ġ/**": 2649,
      "sort": 2650,
      "/**": 2651,
      "Ext": 2652,
      "split": 2653,
      "Ġoff": 2654,
      "testing": 2655,
      "RL": 2656,
      "Ġnon": 2657,
      "irt": 2658,
      "ĠApp": 2659,
      "eatures": 2660,
      "PATH": 2661,
      "Ġthrow": 2662,
      ".</": 2663,
      "Ġselect": 2664,
      "Ġmain": 2665,
      "ĠApache": 2666,
      "adding": 2667,
      "rs": 2668,
      "DIT": 2669,
      "rd": 2670,
      "Read": 2671,
      "License": 2672,
      "Ġrange": 2673,
      "255": 2674,
      ":\"": 2675,
      "Ġ(:": 2676,
      "Ġinclu": 2677,
      "ĠOption": 2678,
      "Resource": 2679,
      "sembly": 2680,
      "Ġexample": 2681,
      "sk": 2682,
      "lig": 2683,
      "mi": 2684,
      "ron": 2685,
      "Ġrest": 2686,
      "TVALID": 2687,
      "close": 2688,
      "google": 2689,
      "font": 2690,
      "ĠBoolean": 2691,
      "Lib": 2692,
      "49": 2693,
      "spring": 2694,
      "ializ": 2695,
      "TDATA": 2696,
      "ĠIF": 2697,
      "Ġ['": 2698,
      "impl": 2699,
      "ãĢĤ": 2700,
      "ped": 2701,
      "OUT": 2702,
      "ĠAdd": 2703,
      "ĠĠĠĠĠĠĠĠĠĠĠĠĠĠĠĠĠĠĠĠĠĠĠ": 2704,
      "Ġ});": 2705,
      "ĉĉĉ": 2706,
      "display": 2707,
      ")-(": 2708,
      "ĠTHIS": 2709,
      "etwork": 2710,
      "PLA": 2711,
      "msg": 2712,
      "åħ": 2713,
      "iver": 2714,
      "orld": 2715,
      "ARY": 2716,
      "Act": 2717,
      "Ġatt": 2718,
      "Attribute": 2719,
      "ĊĠĠĠĠĠĠĠĠĠĠĠĠĠĠĠĠĠĠĠĠĠ": 2720,
      "stream": 2721,
      "Ġchild": 2722,
      "Ġsome": 2723,
      "bed": 2724,
      "ignore": 2725,
      "stack": 2726,
      "ï¼Į": 2727,
      "ĠFalse": 2728,
      "Ġ\"${": 2729,
      "Ġempty": 2730,
      "static": 2731,
      "Types": 2732,
      "hel": 2733,
      "(-": 2734,
      "Ġbl": 2735,
      "graph": 2736,
      "inc": 2737,
      "ĠTh": 2738,
      "Term": 2739,
      "asic": 2740,
      "Arg": 2741,
      "Ċĉĉĉĉĉ": 2742,
      "BUS": 2743,
      "TREADY": 2744,
      "tn": 2745,
      "Ġë": 2746,
      "med": 2747,
      "\"/>": 2748,
      "Ġneed": 2749,
      "?.": 2750,
      "Ġdamage": 2751,
      "ĠLog": 2752,
      "entry": 2753,
      "fs": 2754,
      ">,": 2755,
      "={": 2756,
      "Update": 2757,
      "Label": 2758,
      "URE": 2759,
      "ories": 2760,
      "Ġ(!": 2761,
      "clar": 2762,
      "Ð¾": 2763,
      "ÑĤ": 2764,
      "USER": 2765,
      "'.": 2766,
      "les": 2767,
      "Ġgover": 2768,
      "ynam": 2769,
      "Ġprovided": 2770,
      "arning": 2771,
      "override": 2772,
      "Ġâ": 2773,
      "ules": 2774,
      "ĠWrite": 2775,
      "Ġav": 2776,
      "Ġlast": 2777,
      "resh": 2778,
      "gp": 2779,
      "Ġsame": 2780,
      "issing": 2781,
      "ĠSE": 2782,
      "Ġ;;": 2783,
      "channel": 2784,
      "plot": 2785,
      "Mod": 2786,
      "png": 2787,
      "ĠĊĠĠĠĠĠĠĠ": 2788,
      "connection": 2789,
      "irtual": 2790,
      "step": 2791,
      "LAIM": 2792,
      "Check": 2793,
      "Ġret": 2794,
      "Ġgr": 2795,
      "Collection": 2796,
      "layer": 2797,
      "Ġpost": 2798,
      "Ġparent": 2799,
      "Sc": 2800,
      "Ġ15": 2801,
      "unk": 2802,
      "Ġins": 2803,
      "Ġmut": 2804,
      "signal": 2805,
      "ose": 2806,
      "89": 2807,
      "uster": 2808,
      "ffect": 2809,
      "ved": 2810,
      "resp": 2811,
      "\".": 2812,
      "###": 2813,
      "ĠAPI": 2814,
      "uent": 2815,
      "```": 2816,
      "Select": 2817,
      "creen": 2818,
      "NO": 2819,
      "atom": 2820,
      "ABILITY": 2821,
      "global": 2822,
      "ìĿ": 2823,
      "cul": 2824,
      "Over": 2825,
      "Ġ===": 2826,
      "Ġ\",": 2827,
      "Ġbody": 2828,
      "ĠĊĠĠĠ": 2829,
      "ĠEND": 2830,
      "çĶ": 2831,
      "iso": 2832,
      "(@": 2833,
      "Que": 2834,
      "day": 2835,
      "rict": 2836,
      "active": 2837,
      ",_": 2838,
      "Api": 2839,
      "Ġpage": 2840,
      "limit": 2841,
      "Ġobtain": 2842,
      "QU": 2843,
      "release": 2844,
      "LI": 2845,
      "copy": 2846,
      "ĠInc": 2847,
      "ideo": 2848,
      "gress": 2849,
      "eval": 2850,
      "ĠFROM": 2851,
      "Component": 2852,
      "comm": 2853,
      "olve": 2854,
      "Link": 2855,
      "Json": 2856,
      "Ġlanguage": 2857,
      "Any": 2858,
      "lambda": 2859,
      "){": 2860,
      "ĠIMP": 2861,
      "Ġexcept": 2862,
      "ugh": 2863,
      "Ġdisplay": 2864,
      "bind": 2865,
      "Ġpoint": 2866,
      "room": 2867,
      "ĠCONDIT": 2868,
      "Host": 2869,
      "nown": 2870,
      "aml": 2871,
      "NS": 2872,
      "ĠInst": 2873,
      "exp": 2874,
      "ultiple": 2875,
      "ian": 2876,
      "Ġrow": 2877,
      "Ġ(\"": 2878,
      "when": 2879,
      "HOUT": 2880,
      "ĠCONDITIONS": 2881,
      "lick": 2882,
      "Ġinclude": 2883,
      "cap": 2884,
      "TYPE": 2885,
      "session": 2886,
      "Ġheight": 2887,
      ">\"": 2888,
      "Return": 2889,
      "Ġow": 2890,
      "ĠAL": 2891,
      "ISION": 2892,
      "Ġfont": 2893,
      "Ġnext": 2894,
      "olicy": 2895,
      "Op": 2896,
      "year": 2897,
      "Ġ_,": 2898,
      "ĠCOMP": 2899,
      "EY": 2900,
      "Ġinterface": 2901,
      "Per": 2902,
      "sd": 2903,
      "pha": 2904,
      "wise": 2905,
      "actor": 2906,
      "pendency": 2907,
      "Option": 2908,
      "STR": 2909,
      "safe": 2910,
      "Ð¸": 2911,
      "rimary": 2912,
      "insert": 2913,
      "\"}": 2914,
      "anel": 2915,
      "ĠSoftware": 2916,
      "ĠFor": 2917,
      "gra": 2918,
      "Ġwait": 2919,
      "abc": 2920,
      "dim": 2921,
      "ful": 2922,
      "LICENSE": 2923,
      "Ġ'(": 2924,
      "ĠTime": 2925,
      "oly": 2926,
      "igr": 2927,
      "ern": 2928,
      "ĠDate": 2929,
      "Ġquery": 2930,
      "Ġclo": 2931,
      "Ġchange": 2932,
      "ĠDef": 2933,
      "tore": 2934,
      "zone": 2935,
      "tech": 2936,
      "Ġservice": 2937,
      "asy": 2938,
      "ĠCom": 2939,
      "Float": 2940,
      "Ġwhile": 2941,
      "binary": 2942,
      "Ġawait": 2943,
      "Ġagre": 2944,
      "Det": 2945,
      "ptr": 2946,
      "ĠDis": 2947,
      "LECT": 2948,
      "ĠBY": 2949,
      "Case": 2950,
      "cons": 2951,
      "Ġmode": 2952,
      "ĠAl": 2953,
      "parameter": 2954,
      "Core": 2955,
      "If": 2956,
      "profile": 2957,
      "send": 2958,
      "ÑĢ": 2959,
      "Abstract": 2960,
      "Ġcondition": 2961,
      "licenses": 2962,
      "Ġph": 2963,
      "achine": 2964,
      "urs": 2965,
      "cmd": 2966,
      "nap": 2967,
      "uiltin": 2968,
      "Ġsche": 2969,
      "WORK": 2970,
      "full": 2971,
      "metadata": 2972,
      "Ġtask": 2973,
      "Ġparams": 2974,
      "istory": 2975,
      "cel": 2976,
      "Ġacc": 2977,
      "password": 2978,
      ">]": 2979,
      "ansp": 2980,
      "Ġdate": 2981,
      "oper": 2982,
      "CC": 2983,
      "ious": 2984,
      "Ġlink": 2985,
      "Diff": 2986,
      "rm": 2987,
      "Ġpred": 2988,
      "Project": 2989,
      "ĠWITHOUT": 2990,
      "Back": 2991,
      "ycle": 2992,
      "äº": 2993,
      "Null": 2994,
      "åĪ": 2995,
      "Ġsuper": 2996,
      "words": 2997,
      "java": 2998,
      "Ġasync": 2999,
      "branch": 3000,
      "desc": 3001,
      "ency": 3002,
      "CHAR": 3003,
      "Ġfilter": 3004,
      "Ġ<!--": 3005,
      ",$": 3006,
      "Width": 3007,
      "Ass": 3008,
      "fd": 3009,
      "Params": 3010,
      "////////////////": 3011,
      "PLAY": 3012,
      "AA": 3013,
      "Body": 3014,
      "<?": 3015,
      "());": 3016,
      "Configuration": 3017,
      "task": 3018,
      "ries": 3019,
      "Ġloop": 3020,
      "API": 3021,
      "other": 3022,
      "Ġstore": 3023,
      "imum": 3024,
      "Ġconstant": 3025,
      "ĠDIV": 3026,
      "ĠKEY": 3027,
      "conds": 3028,
      "ocker": 3029,
      "IGHT": 3030,
      "see": 3031,
      "docs": 3032,
      "ĊĠĠĠĠĠĠĠĠĠĠĠĠĠĠĠĠĠĠ": 3033,
      "TR": 3034,
      "2018": 3035,
      "DD": 3036,
      "Debug": 3037,
      "Part": 3038,
      "ze": 3039,
      "DU": 3040,
      "0001": 3041,
      "patch": 3042,
      "Ġsw": 3043,
      "Ġgit": 3044,
      "uard": 3045,
      "ches": 3046,
      "ĠSelf": 3047,
      "argin": 3048,
      "container": 3049,
      "Rout": 3050,
      "\")]": 3051,
      "Expression": 3052,
      "Provider": 3053,
      "ĠError": 3054,
      "csv": 3055,
      "æľ": 3056,
      "ĠKIND": 3057,
      "served": 3058,
      "Ġexpress": 3059,
      "Ġunit": 3060,
      "idden": 3061,
      "IAL": 3062,
      "Sign": 3063,
      "Ġbefore": 3064,
      "ummy": 3065,
      "aces": 3066,
      "Ġtop": 3067,
      "PER": 3068,
      "ĠON": 3069,
      "Ġsee": 3070,
      "*)": 3071,
      "Ent": 3072,
      "ls": 3073,
      "sers": 3074,
      "non": 3075,
      "imal": 3076,
      "enter": 3077,
      "Ġtwo": 3078,
      "quote": 3079,
      "gg": 3080,
      "Ġtypes": 3081,
      "LOGIC": 3082,
      "Ġ<>": 3083,
      "pred": 3084,
      "POSE": 3085,
      "bs": 3086,
      "DS": 3087,
      "Ġroot": 3088,
      "CK": 3089,
      "each": 3090,
      "ĠWS": 3091,
      "Level": 3092,
      "And": 3093,
      "Ġwriting": 3094,
      "Ġocc": 3095,
      "redential": 3096,
      "encode": 3097,
      "Container": 3098,
      "Ġ14": 3099,
      "ude": 3100,
      "native": 3101,
      "ten": 3102,
      "enable": 3103,
      "Queue": 3104,
      "syntax": 3105,
      "Ġimplied": 3106,
      "EXT": 3107,
      "child": 3108,
      "Http": 3109,
      "ĠDo": 3110,
      "ross": 3111,
      "irection": 3112,
      "Ġparameters": 3113,
      "Length": 3114,
      "lint": 3115,
      "ily": 3116,
      "Stub": 3117,
      "Factory": 3118,
      "Draw": 3119,
      "Ġgoverning": 3120,
      "remove": 3121,
      "ah": 3122,
      "Ġits": 3123,
      "Ġ^": 3124,
      "BU": 3125,
      "zig": 3126,
      "Ġman": 3127,
      ";;;;;;;;;;;;;;;;": 3128,
      "ĠEvent": 3129,
      "Fl": 3130,
      "ĠĠĠĠĠĠĠĠĠĠĠĠĠĠĠĠĠĠĠĠĠ": 3131,
      "Ġes": 3132,
      "ights": 3133,
      "ĠDISC": 3134,
      "UNT": 3135,
      "ique": 3136,
      "liance": 3137,
      "Env": 3138,
      "íķ": 3139,
      "LAST": 3140,
      "ynamic": 3141,
      "ĠLicensed": 3142,
      "nb": 3143,
      "Ġbinary": 3144,
      "cor": 3145,
      "save": 3146,
      "****************************************************************": 3147,
      "Ġexpected": 3148,
      "CP": 3149,
      "Ġjson": 3150,
      "95": 3151,
      "prefix": 3152,
      "ade": 3153,
      "ĠAR": 3154,
      "clear": 3155,
      "Ġ''": 3156,
      "Description": 3157,
      "GU": 3158,
      "Ġafter": 3159,
      "artifactId": 3160,
      "dependencies": 3161,
      "Ġver": 3162,
      "ĠNew": 3163,
      "ures": 3164,
      "]$": 3165,
      "abs": 3166,
      "riter": 3167,
      "ĠSTD": 3168,
      "inline": 3169,
      "Ġfound": 3170,
      "ĠDIVISION": 3171,
      "book": 3172,
      "(\"/": 3173,
      "TS": 3174,
      "Ġpackage": 3175,
      "ĠConfig": 3176,
      "Address": 3177,
      "seq": 3178,
      "Ġ12": 3179,
      "execut": 3180,
      "aint": 3181,
      "nop": 3182,
      "rb": 3183,
      "ĠALL": 3184,
      "train": 3185,
      "eta": 3186,
      "timestamp": 3187,
      "ane": 3188,
      "Ġcopyright": 3189,
      "Ġallow": 3190,
      "ished": 3191,
      "Format": 3192,
      "required": 3193,
      "ĊĊĉ": 3194,
      "framework": 3195,
      "ERE": 3196,
      "iss": 3197,
      "Ġcontrol": 3198,
      "IME": 3199,
      "dule": 3200,
      "OS": 3201,
      "Port": 3202,
      "fmt": 3203,
      "ĠDes": 3204,
      "Ġposition": 3205,
      "ĠAUT": 3206,
      "åĲ": 3207,
      "Ġnames": 3208,
      "raint": 3209,
      "extension": 3210,
      "Ġprogram": 3211,
      "au": 3212,
      "Ġsort": 3213,
      "Empty": 3214,
      "handle": 3215,
      "scale": 3216,
      "utter": 3217,
      "ĠINST": 3218,
      "ãģĻ": 3219,
      "pose": 3220,
      "iod": 3221,
      "Ġfloat": 3222,
      "Max": 3223,
      "ession": 3224,
      "ACK": 3225,
      "gex": 3226,
      "Theme": 3227,
      "ĠOUT": 3228,
      ":\\": 3229,
      "connect": 3230,
      "IMIT": 3231,
      "ä½": 3232,
      "shot": 3233,
      "ĠNS": 3234,
      "ucket": 3235,
      "Ġheader": 3236,
      "IX": 3237,
      "draw": 3238,
      "vol": 3239,
      "ulti": 3240,
      "REF": 3241,
      "Ġdirectory": 3242,
      "TW": 3243,
      "Ġ{{": 3244,
      "anges": 3245,
      "iction": 3246,
      "Ġboolean": 3247,
      "subject": 3248,
      "79": 3249,
      "ences": 3250,
      "ĠBAS": 3251,
      "udo": 3252,
      "Ġlimitations": 3253,
      "groupId": 3254,
      "Ġreturns": 3255,
      "Ġfunctions": 3256,
      "pg": 3257,
      "ĠIO": 3258,
      "Ġpermissions": 3259,
      "icate": 3260,
      "ier": 3261,
      "Tag": 3262,
      "agent": 3263,
      "dated": 3264,
      "exec": 3265,
      "Ġdb": 3266,
      "Hash": 3267,
      "nil": 3268,
      "ĠAP": 3269,
      "resses": 3270,
      "aa": 3271,
      "now": 3272,
      "ĠResult": 3273,
      "Utils": 3274,
      "ones": 3275,
      "SH": 3276,
      "Handler": 3277,
      "Pre": 3278,
      "ĠPART": 3279,
      "ĠHT": 3280,
      "Args": 3281,
      "ĠAV": 3282,
      "kdir": 3283,
      "Ġem": 3284,
      "ĠObject": 3285,
      "Ġ++": 3286,
      "until": 3287,
      "Ġ\"<": 3288,
      "sv": 3289,
      "Member": 3290,
      "åĬ": 3291,
      "Ġtemp": 3292,
      "ĠReturn": 3293,
      "Ġopts": 3294,
      ";;;": 3295,
      "conn": 3296,
      "opts": 3297,
      "dist": 3298,
      "stop": 3299,
      "Ġ[[": 3300,
      "Items": 3301,
      "rf": 3302,
      "loop": 3303,
      "Ġinitial": 3304,
      "Ġagreed": 3305,
      "resource": 3306,
      "buffer": 3307,
      "Ġlevel": 3308,
      "configuration": 3309,
      "Ġexit": 3310,
      "Ġsuch": 3311,
      "wr": 3312,
      "ero": 3313,
      "ERROR": 3314,
      "43": 3315,
      "vision": 3316,
      "grad": 3317,
      "Frame": 3318,
      "ended": 3319,
      "Ġmo": 3320,
      "ĊĠĠĠĠĠĠĠĠĠĠĠĠĠĠĠĠĠĠĠĠĠĠĠĠĠĠĠĠĠĠĠ": 3321,
      "inue": 3322,
      "ĠBe": 3323,
      "gistry": 3324,
      "Header": 3325,
      "cb": 3326,
      "vm": 3327,
      "Ġsend": 3328,
      "Ġcompliance": 3329,
      "apply": 3330,
      "Ġ[:": 3331,
      "Ġreserved": 3332,
      "RAM": 3333,
      "Assembly": 3334,
      "ECT": 3335,
      "ialog": 3336,
      "85": 3337,
      "Ġscript": 3338,
      "sample": 3339,
      "True": 3340,
      "andard": 3341,
      "builtin": 3342,
      "annot": 3343,
      "ersist": 3344,
      "Ġhash": 3345,
      "ĠWITH": 3346,
      "light": 3347,
      "ru": 3348,
      "Tx": 3349,
      "ayment": 3350,
      "63": 3351,
      "Integer": 3352,
      "ĠUser": 3353,
      "Record": 3354,
      "Char": 3355,
      "application": 3356,
      "dat": 3357,
      "Ġthere": 3358,
      "del": 3359,
      "admin": 3360,
      "template": 3361,
      "[#": 3362,
      "items": 3363,
      "Ġincluding": 3364,
      "ĠBASIS": 3365,
      "RIT": 3366,
      "Wh": 3367,
      "Ġ\"-": 3368,
      "cpu": 3369,
      "Ġsql": 3370,
      "SELECT": 3371,
      "scala": 3372,
      "react": 3373,
      "Ġcatch": 3374,
      "Ġrece": 3375,
      "ĠĠĠĠĠĠĠĠĠĠĠĠĠĠĠĠĠĠ": 3376,
      "ermission": 3377,
      "cast": 3378,
      "Ġavailable": 3379,
      "Oper": 3380,
      "ĠColor": 3381,
      "acket": 3382,
      "Ġprotected": 3383,
      "Ġexist": 3384,
      "tools": 3385,
      "PRESS": 3386,
      "Control": 3387,
      "ĠDO": 3388,
      "tk": 3389,
      "Ġdirect": 3390,
      "ĠRead": 3391,
      "60": 3392,
      "ous": 3393,
      "wd": 3394,
      "els": 3395,
      "rip": 3396,
      "schema": 3397,
      "fold": 3398,
      "lot": 3399,
      "DULE": 3400,
      "rigger": 3401,
      "printf": 3402,
      "Row": 3403,
      "ĠType": 3404,
      "ibility": 3405,
      "Widget": 3406,
      "align": 3407,
      "claration": 3408,
      "TO": 3409,
      "center": 3410,
      "reen": 3411,
      "42": 3412,
      "Ġref": 3413,
      "oss": 3414,
      "ives": 3415,
      "NUM": 3416,
      "@@": 3417,
      "voke": 3418,
      "Position": 3419,
      "medi": 3420,
      "00000000": 3421,
      "structor": 3422,
      "Ġput": 3423,
      "PF": 3424,
      "Ġresource": 3425,
      "CLUD": 3426,
      "builder": 3427,
      "oot": 3428,
      "xis": 3429,
      "Ġ%{": 3430,
      "Ġmet": 3431,
      "column": 3432,
      "models": 3433,
      "CLUDING": 3434,
      "ging": 3435,
      "57": 3436,
      "?]": 3437,
      "icode": 3438,
      "umns": 3439,
      "Init": 3440,
      "corre": 3441,
      "asses": 3442,
      "Ġlen": 3443,
      "OFTW": 3444,
      "OFTWARE": 3445,
      "irm": 3446,
      "ä»": 3447,
      "register": 3448,
      "Ġdouble": 3449,
      "Ġbeen": 3450,
      "Ġcontains": 3451,
      "------------------------------------------------": 3452,
      "idx": 3453,
      "Ġmaterial": 3454,
      "river": 3455,
      "lr": 3456,
      "Ġconfiguration": 3457,
      "lation": 3458,
      "Ġ(.": 3459,
      "ites": 3460,
      "ĠDISCLAIM": 3461,
      "access": 3462,
      "Ġalso": 3463,
      "PS": 3464,
      "Ġcolumn": 3465,
      ",\"": 3466,
      "Ġ'$": 3467,
      "latest": 3468,
      "NOT": 3469,
      "Ġac": 3470,
      "rt": 3471,
      "Ġsubject": 3472,
      "eric": 3473,
      "Ġstop": 3474,
      "leted": 3475,
      "apping": 3476,
      "none": 3477,
      "Ġspecified": 3478,
      "hav": 3479,
      "Ġop": 3480,
      "delete": 3481,
      "ways": 3482,
      ">(": 3483,
      "?(": 3484,
      "*/": 3485,
      "float": 3486,
      "fi": 3487,
      "gb": 3488,
      "Clo": 3489,
      "Ġ\"./": 3490,
      "lip": 3491,
      "iteral": 3492,
      "ĠCOPY": 3493,
      "]}": 3494,
      "bb": 3495,
      "Ð½": 3496,
      "bove": 3497,
      "Ġtx": 3498,
      "grid": 3499,
      "leep": 3500,
      "ĠUnless": 3501,
      "bers": 3502,
      "ĠIP": 3503,
      "archive": 3504,
      "=>": 3505,
      "ĠIt": 3506,
      "Ġstream": 3507,
      "ĊĠĠĠĠĠĠĠĠĠĠĠĠĠĠĠĠĠĠĠĠ": 3508,
      "ĠClass": 3509,
      "Thread": 3510,
      "Title": 3511,
      "Ġdif": 3512,
      "month": 3513,
      "Ġfore": 3514,
      "Ġregister": 3515,
      "Ġ\"#": 3516,
      "ident": 3517,
      "Ġok": 3518,
      "jet": 3519,
      "Ġå": 3520,
      "Ver": 3521,
      "Open": 3522,
      "rest": 3523,
      "ãĢģ": 3524,
      "fit": 3525,
      "ĠUI": 3526,
      "Ġren": 3527,
      "ĠId": 3528,
      "Height": 3529,
      "sis": 3530,
      "LIED": 3531,
      "`.": 3532,
      "ĠUS": 3533,
      "Top": 3534,
      "ëĭ": 3535,
      "DER": 3536,
      "Long": 3537,
      "fin": 3538,
      "MM": 3539,
      "Ġstep": 3540,
      "comment": 3541,
      "ĠUnit": 3542,
      "defproc": 3543,
      "iated": 3544,
      "reference": 3545,
      "attr": 3546,
      "ĠTrue": 3547,
      "duc": 3548,
      "Bar": 3549,
      "/\"": 3550,
      "subfield": 3551,
      "Ġ[{": 3552,
      "eg": 3553,
      "Ġsk": 3554,
      "Ġsum": 3555,
      "Ġdiv": 3556,
      "ordin": 3557,
      "COMP": 3558,
      "UI": 3559,
      "Ġlocation": 3560,
      "Ġabove": 3561,
      ">)": 3562,
      "]),": 3563,
      "Ġfree": 3564,
      "Layout": 3565,
      "Search": 3566,
      "Ġnormal": 3567,
      "acing": 3568,
      "iler": 3569,
      "Location": 3570,
      "DF": 3571,
      "off": 3572,
      "yp": 3573,
      "ĠSOFTWARE": 3574,
      "Ġcore": 3575,
      "67": 3576,
      "ted": 3577,
      "Ġrepresent": 3578,
      "IR": 3579,
      "FO": 3580,
      "ctor": 3581,
      "ãĤĴ": 3582,
      "AV": 3583,
      "game": 3584,
      "decode": 3585,
      "Ġpython": 3586,
      "Ġthese": 3587,
      "aven": 3588,
      "actions": 3589,
      "54": 3590,
      "$$": 3591,
      "Ġim": 3592,
      "Ġeval": 3593,
      "letion": 3594,
      "Entry": 3595,
      "je": 3596,
      "IMITED": 3597,
      "rad": 3598,
      "Prop": 3599,
      "cell": 3600,
      "ĠIMPLIED": 3601,
      "Import": 3602,
      "final": 3603,
      "Metadata": 3604,
      "aded": 3605,
      "storage": 3606,
      "orig": 3607,
      "expression": 3608,
      "Ġignore": 3609,
      "Mon": 3610,
      "Target": 3611,
      "rand": 3612,
      "=\"../": 3613,
      "ince": 3614,
      "KEEP": 3615,
      "ĠOut": 3616,
      "prop": 3617,
      "Ġutf": 3618,
      "Application": 3619,
      "Schema": 3620,
      "Ġrender": 3621,
      "SD": 3622,
      "uple": 3623,
      "84": 3624,
      "EE": 3625,
      "Ġred": 3626,
      "counter": 3627,
      "rout": 3628,
      "ĠĠĠĠĠĠĠĠĠĠĠĠĠĠĠĠĠĠĠĠĠĠĠĠĠ": 3629,
      "document": 3630,
      "category": 3631,
      "ĠDeb": 3632,
      "fill": 3633,
      "<<": 3634,
      "oto": 3635,
      "ĠOn": 3636,
      "udio": 3637,
      "æĸ": 3638,
      "URPOSE": 3639,
      "Ġenvironment": 3640,
      "ront": 3641,
      "Ġcomponent": 3642,
      "PORT": 3643,
      "Ġotherwise": 3644,
      "Ġown": 3645,
      "havi": 3646,
      "Ġinfo": 3647,
      "ĠLanguage": 3648,
      "Ġsl": 3649,
      "Process": 3650,
      "ling": 3651,
      "gz": 3652,
      "kind": 3653,
      "CHANT": 3654,
      "iddle": 3655,
      "Sec": 3656,
      "Work": 3657,
      "sol": 3658,
      ".*": 3659,
      "orch": 3660,
      "Windows": 3661,
      "uc": 3662,
      "settings": 3663,
      "Settings": 3664,
      "ene": 3665,
      "Ġ(=": 3666,
      "ERCHANT": 3667,
      "90": 3668,
      "/$": 3669,
      "download": 3670,
      "NESS": 3671,
      "'],": 3672,
      "ka": 3673,
      "ICE": 3674,
      "ĠCreate": 3675,
      "ULAR": 3676,
      "Ġfix": 3677,
      "ugins": 3678,
      "IGN": 3679,
      "TA": 3680,
      "agement": 3681,
      "ĠUse": 3682,
      "%%%": 3683,
      "ERCHANTABILITY": 3684,
      "Store": 3685,
      "Ġdist": 3686,
      "ĠFILE": 3687,
      "Ġhelp": 3688,
      "MODULE": 3689,
      "$`": 3690,
      "loor": 3691,
      "ITNESS": 3692,
      "ãĤĭ": 3693,
      "SI": 3694,
      "TKEEP": 3695,
      "assed": 3696,
      "ĊĠĠĠĠĠĠĠĠĊĠĠĠĠĠĠĠ": 3697,
      "Connection": 3698,
      "napshot": 3699,
      "Ġcustom": 3700,
      "Ġpic": 3701,
      "undle": 3702,
      "ializer": 3703,
      "WORKDIR": 3704,
      "etwe": 3705,
      "ĠPURPOSE": 3706,
      "question": 3707,
      "PG": 3708,
      "dr": 3709,
      "then": 3710,
      "success": 3711,
      "FR": 3712,
      "VID": 3713,
      "ÂłÂł": 3714,
      "Ġpassword": 3715,
      "Ġthan": 3716,
      "Ġleft": 3717,
      "Ġobj": 3718,
      "Ġexp": 3719,
      "]).": 3720,
      "TLAST": 3721,
      "Ġpos": 3722,
      "fe": 3723,
      "ĠMOVE": 3724,
      "Ġproducts": 3725,
      ")}": 3726,
      "SY": 3727,
      "arr": 3728,
      "amily": 3729,
      "ãģĹ": 3730,
      "Ġparam": 3731,
      "ward": 3732,
      "arm": 3733,
      "uture": 3734,
      "Ġxml": 3735,
      "ĠĠĠĠĠĠĠĠĠĠĠĠĠĠĠĠĠĠĠĠĠĠĠĠĠĠĠ": 3736,
      "Ġconf": 3737,
      "ĠWh": 3738,
      "Ġdevices": 3739,
      "ely": 3740,
      "ĠFITNESS": 3741,
      "JSON": 3742,
      "otlin": 3743,
      "Ġ03": 3744,
      "Identifier": 3745,
      "ĠMERCHANTABILITY": 3746,
      "65": 3747,
      "na": 3748,
      "Ġdim": 3749,
      "atory": 3750,
      "ird": 3751,
      "Ġtests": 3752,
      "long": 3753,
      "ãĥ³": 3754,
      "ived": 3755,
      "ĠDISPLAY": 3756,
      "Min": 3757,
      "control": 3758,
      "?)": 3759,
      "Buffer": 3760,
      "custom": 3761,
      "sourceText": 3762,
      "just": 3763,
      "super": 3764,
      "tar": 3765,
      "lice": 3766,
      "HOME": 3767,
      "xx": 3768,
      "Ġ11": 3769,
      "ĠBUT": 3770,
      "mcfg": 3771,
      "Ñģ": 3772,
      "Ġ\".": 3773,
      "LEMENT": 3774,
      "We": 3775,
      "cdr": 3776,
      "çĶ¨": 3777,
      "Ġuntil": 3778,
      "Ġarguments": 3779,
      "rag": 3780,
      "Ġkind": 3781,
      "Ġla": 3782,
      "uint": 3783,
      "ĠApplication": 3784,
      "Root": 3785,
      "TAG": 3786,
      "Ġpri": 3787,
      "site": 3788,
      "tails": 3789,
      "Ġloc": 3790,
      "ĠRequest": 3791,
      "phase": 3792,
      "Ġfull": 3793,
      "SL": 3794,
      "ĠGN": 3795,
      "licit": 3796,
      "Ġabout": 3797,
      "ĠUp": 3798,
      "->{": 3799,
      "etween": 3800,
      "Bytes": 3801,
      "ĠDebug": 3802,
      "MT": 3803,
      "Print": 3804,
      "Ġvis": 3805,
      "ĠFA": 3806,
      "Session": 3807,
      "rr": 3808,
      "Register": 3809,
      "ICULAR": 3810,
      "Ġcontain": 3811,
      "ĠPARTICULAR": 3812,
      "icle": 3813,
      "ĠCH": 3814,
      "verter": 3815,
      "Folder": 3816,
      "Ġperform": 3817,
      "Ġreport": 3818,
      "Self": 3819,
      "filename": 3820,
      "Seq": 3821,
      "single": 3822,
      "(`": 3823,
      "drop": 3824,
      "Ġlong": 3825,
      "refix": 3826,
      "ination": 3827,
      "Send": 3828,
      "dt": 3829,
      "Ġwant": 3830,
      "Ġsuccess": 3831,
      "mar": 3832,
      "imation": 3833,
      "================================================================": 3834,
      "Ġentry": 3835,
      "ech": 3836,
      "AND": 3837,
      "support": 3838,
      "allow": 3839,
      "network": 3840,
      "Head": 3841,
      "Ġorig": 3842,
      "throw": 3843,
      "Ġbyte": 3844,
      "handler": 3845,
      "Pool": 3846,
      "]);": 3847,
      "master": 3848,
      "npm": 3849,
      "allocator": 3850,
      "ĠPl": 3851,
      "<!--": 3852,
      "jure": 3853,
      "score": 3854,
      "ctions": 3855,
      "#!": 3856,
      "čĊĠĠĠĠĠĠĠĠĠĠĠĠĠĠĠ": 3857,
      "double": 3858,
      "Ġrm": 3859,
      "BO": 3860,
      "Order": 3861,
      "Ġmember": 3862,
      "mas": 3863,
      "Ġrelated": 3864,
      "Ġ(`": 3865,
      "ĊĠĠĠĠĠĠĠĠĠĠĠĠĠĠĠĠĠĠĠĠĠĠĠĠĠ": 3866,
      "Override": 3867,
      "2283": 3868,
      "dependency": 3869,
      "rough": 3870,
      "mission": 3871,
      "ution": 3872,
      "Ġder": 3873,
      "ĠPROC": 3874,
      "Channel": 3875,
      "optional": 3876,
      "PR": 3877,
      "cm": 3878,
      "Ġlike": 3879,
      "repo": 3880,
      "ĠNO": 3881,
      "Ġlists": 3882,
      "Ġabstract": 3883,
      "Ġconditions": 3884,
      "62": 3885,
      "Vis": 3886,
      "wt": 3887,
      "TEST": 3888,
      "Ġbit": 3889,
      "Ġbuffer": 3890,
      "Ġcharacter": 3891,
      "RIGHT": 3892,
      "report": 3893,
      "ĠSub": 3894,
      "78": 3895,
      "alth": 3896,
      "Ġraise": 3897,
      "heet": 3898,
      "....": 3899,
      "Ġ>=": 3900,
      "Ġ];": 3901,
      "94": 3902,
      "<'": 3903,
      "coder": 3904,
      "Ġnotice": 3905,
      "Document": 3906,
      "98": 3907,
      "ually": 3908,
      "ents": 3909,
      "ĠLo": 3910,
      "''": 3911,
      "acity": 3912,
      "thing": 3913,
      "'>": 3914,
      "ĠTR": 3915,
      "users": 3916,
      "ernel": 3917,
      "la": 3918,
      "unicode": 3919,
      "member": 3920,
      "Ġcalled": 3921,
      "ĠImp": 3922,
      "uby": 3923,
      "--------------": 3924,
      "aws": 3925,
      "Ġlibrary": 3926,
      "Num": 3927,
      "Ġ000000": 3928,
      "ural": 3929,
      "Ġdev": 3930,
      ")*": 3931,
      "normal": 3932,
      "ĠMPI": 3933,
      "ĠInter": 3934,
      "login": 3935,
      ":-": 3936,
      "repository": 3937,
      "ĠLI": 3938,
      "ĠEN": 3939,
      "|>": 3940,
      "ĠLIMITED": 3941,
      "Ã©": 3942,
      "Ġæ": 3943,
      "ĠDep": 3944,
      "symbol": 3945,
      "123": 3946,
      "lite": 3947,
      "PL": 3948,
      "bottom": 3949,
      "menu": 3950,
      "128": 3951,
      "58": 3952,
      "Ġcell": 3953,
      "Ġns": 3954,
      "ursor": 3955,
      "GL": 3956,
      "Ġperson": 3957,
      "Ġaccount": 3958,
      "ker": 3959,
      "lear": 3960,
      "dl": 3961,
      "//!": 3962,
      "ĠCheck": 3963,
      "Files": 3964,
      "ij": 3965,
      "inux": 3966,
      "Properties": 3967,
      "Elements": 3968,
      "lat": 3969,
      "equals": 3970,
      "Handle": 3971,
      "ĠWe": 3972,
      "Ġ30": 3973,
      "nav": 3974,
      "assign": 3975,
      "Ġctx": 3976,
      "Ġoffset": 3977,
      "Ġjust": 3978,
      "ĠSeq": 3979,
      "][": 3980,
      "sec": 3981,
      "resent": 3982,
      "velop": 3983,
      "Ġwindow": 3984,
      "/.": 3985,
      "fa": 3986,
      "è¡": 3987,
      "track": 3988,
      "Ġ\\\"": 3989,
      "pu": 3990,
      "replace": 3991,
      "println": 3992,
      "âĢ": 3993,
      "Ġip": 3994,
      "Ġ1000": 3995,
      "ĠâĶĤ": 3996,
      "cla": 3997,
      "Ġhost": 3998,
      "ĠPR": 3999,
      "%%%%": 4000,
      "Rect": 4001,
      "rooms": 4002,
      "umb": 4003,
      "ĠParse": 4004,
      "Ġ---": 4005,
      "rank": 4006,
      "username": 4007,
      "Ġstructure": 4008,
      "rate": 4009,
      "iving": 4010,
      "entication": 4011,
      "Interface": 4012,
      "edge": 4013,
      "Password": 4014,
      "merge": 4015,
      "Ġsetup": 4016,
      "async": 4017,
      "ii": 4018,
      "vious": 4019,
      "ench": 4020,
      "Ġos": 4021,
      "ĠCode": 4022,
      "lines": 4023,
      "help": 4024,
      "Device": 4025,
      "Game": 4026,
      "#[": 4027,
      "&&": 4028,
      ".(": 4029,
      "setup": 4030,
      "LAB": 4031,
      "$(": 4032,
      "Ġ\"../": 4033,
      "Ġcorrect": 4034,
      "ĠAct": 4035,
      "Ġthem": 4036,
      "ORY": 4037,
      "LK": 4038,
      "Users": 4039,
      "ĠĠĠĠĠĠĠĠĠĠĠĠĠĠĠĠĠĠĠĠ": 4040,
      "Ġprovide": 4041,
      "bool": 4042,
      ")(": 4043,
      "ape": 4044,
      "\":\"": 4045,
      "Ġ(+": 4046,
      "Bit": 4047,
      "Parameters": 4048,
      "ĠServer": 4049,
      "âĶĢâĶĢ": 4050,
      "Ġtree": 4051,
      "Ġrelease": 4052,
      "-->": 4053,
      "hether": 4054,
      "ĠPath": 4055,
      "pkg": 4056,
      "Ġdelete": 4057,
      "ferent": 4058,
      "chron": 4059,
      "ĠLe": 4060,
      "pare": 4061,
      "ĠĊĠ": 4062,
      "acc": 4063,
      "dst": 4064,
      "ĠOTH": 4065,
      "999": 4066,
      "eek": 4067,
      "ĠOTHER": 4068,
      "Ġrandom": 4069,
      "Ġdefined": 4070,
      "Ġunless": 4071,
      "styles": 4072,
      "Ġheaders": 4073,
      "dec": 4074,
      "ational": 4075,
      "ushrooms": 4076,
      "bytes": 4077,
      "Ġ(-": 4078,
      "Ġactual": 4079,
      "Sw": 4080,
      "cloud": 4081,
      "ĠInstall": 4082,
      "Directory": 4083,
      "ĠFPF": 4084,
      "Ġinsert": 4085,
      "Ġ[],": 4086,
      "mock": 4087,
      ">([": 4088,
      "MAX": 4089,
      "domain": 4090,
      "ited": 4091,
      "ĠForm": 4092,
      "Ġexecut": 4093,
      "`)": 4094,
      "ons": 4095,
      "Ġmushrooms": 4096,
      "tegr": 4097,
      "Do": 4098,
      "Ġbro": 4099,
      "Ġweb": 4100,
      "ĊĠĠĠĠĠĠĠĠĠĠĠĠĠĠĠĠĠĠĠĠĠĠĠĠĠĠĠĠĠĠĠĠĠĠĠ": 4101,
      "BY": 4102,
      "fc": 4103,
      "TRA": 4104,
      "Repository": 4105,
      "Ġ'.": 4106,
      "ĠBE": 4107,
      "Ġsingle": 4108,
      "ĠWork": 4109,
      "lists": 4110,
      "'))": 4111,
      "Ġtmp": 4112,
      "Ġposs": 4113,
      "ĊĠĠĊĠ": 4114,
      "Ġundefined": 4115,
      "XX": 4116,
      "parture": 4117,
      "exit": 4118,
      "ĠCre": 4119,
      "itional": 4120,
      "ointer": 4121,
      "Ġ\"@": 4122,
      "Ġsm": 4123,
      "ĠImage": 4124,
      "ĠURL": 4125,
      "oundation": 4126,
      "RC": 4127,
      "identifier": 4128,
      "Dec": 4129,
      "VM": 4130,
      "ĠSET": 4131,
      "fail": 4132,
      "alt": 4133,
      "ĠCOLL": 4134,
      "ider": 4135,
      "ĠTrans": 4136,
      "culate": 4137,
      "click": 4138,
      "pol": 4139,
      "person": 4140,
      "Ġour": 4141,
      "Reader": 4142,
      "angle": 4143,
      "DR": 4144,
      "holder": 4145,
      "Ġ----------------": 4146,
      "itive": 4147,
      "Ġimplementation": 4148,
      "Can": 4149,
      "dc": 4150,
      "docker": 4151,
      "Ġ%>": 4152,
      "])</": 4153,
      "Ġocca": 4154,
      "Ġargument": 4155,
      "Ġthey": 4156,
      "render": 4157,
      "Ġsettings": 4158,
      "EGER": 4159,
      "Ġcreated": 4160,
      "gmail": 4161,
      "ĠAss": 4162,
      "ĠIs": 4163,
      "Ġ/*": 4164,
      "Ġenum": 4165,
      "Obj": 4166,
      "Panel": 4167,
      "Cap": 4168,
      "Script": 4169,
      "collection": 4170,
      "Endpoint": 4171,
      "bus": 4172,
      "curs": 4173,
      "Screen": 4174,
      "è¯": 4175,
      "star": 4176,
      "Ġcache": 4177,
      "ĠINCLUDING": 4178,
      "Ġmaterials": 4179,
      "JECT": 4180,
      "bash": 4181,
      "]))": 4182,
      "ĠTerm": 4183,
      "COR": 4184,
      "Ġsim": 4185,
      "ĠCustom": 4186,
      "gradle": 4187,
      "cmp": 4188,
      "ĠCOLLATE": 4189,
      "None": 4190,
      "ĠInput": 4191,
      "Ġlines": 4192,
      "sim": 4193,
      "socket": 4194,
      "Ġpush": 4195,
      "Ġaut": 4196,
      "Ġnow": 4197,
      "Ġenable": 4198,
      "cret": 4199,
      "Temp": 4200,
      "kin": 4201,
      "itude": 4202,
      "Ali": 4203,
      "ĠAda": 4204,
      "ured": 4205,
      "Byte": 4206,
      "Ġauth": 4207,
      "Ġsession": 4208,
      "window": 4209,
      "Ġgre": 4210,
      "Ġusize": 4211,
      "uri": 4212,
      "zz": 4213,
      "Ġ$_": 4214,
      "Package": 4215,
      "rv": 4216,
      "GE": 4217,
      "stat": 4218,
      "Ġaddress": 4219,
      "vas": 4220,
      "device": 4221,
      "Ġauthor": 4222,
      "ĠBuild": 4223,
      "callback": 4224,
      "ãģĹãģ": 4225,
      "Ġag": 4226,
      "Attributes": 4227,
      "101": 4228,
      "unch": 4229,
      "Ġremove": 4230,
      "Ġcontainer": 4231,
      "legate": 4232,
      "REQ": 4233,
      "Ġsever": 4234,
      "ĠADD": 4235,
      "TX": 4236,
      "Ġeven": 4237,
      "ĠEXPRESS": 4238,
      "Ġmatrix": 4239,
      "tick": 4240,
      "lem": 4241,
      "tep": 4242,
      "where": 4243,
      "role": 4244,
      "andatory": 4245,
      "ĠUN": 4246,
      "EAD": 4247,
      "Ġmsg": 4248,
      "Left": 4249,
      "pth": 4250,
      "features": 4251,
      "internal": 4252,
      "Ġsection": 4253,
      "Ġvariables": 4254,
      "Ġclk": 4255,
      "ĠSECTION": 4256,
      "bc": 4257,
      "Route": 4258,
      "(**": 4259,
      "Match": 4260,
      "ife": 4261,
      "Ġpermit": 4262,
      "sure": 4263,
      "tests": 4264,
      "ãĥ¼ãĤ": 4265,
      "acy": 4266,
      "account": 4267,
      "weight": 4268,
      "DP": 4269,
      "ius": 4270,
      "ube": 4271,
      "Pr": 4272,
      "ship": 4273,
      "Ġ33": 4274,
      "Ġtokens": 4275,
      "\"},": 4276,
      "pattern": 4277,
      "Ġsol": 4278,
      "activ": 4279,
      "å®": 4280,
      "ĠĠĠĠĠĠĠĠĠĠĠĠĠĠĠĠĠĠĠĠĠĠĠĠĠĠĠĠĠ": 4281,
      "Down": 4282,
      "Rule": 4283,
      "ĠBy": 4284,
      "flutter": 4285,
      "Bind": 4286,
      "total": 4287,
      "Role": 4288,
      "»¿": 4289,
      "ï»¿": 4290,
      "ĠCOPYRIGHT": 4291,
      "GO": 4292,
      "Range": 4293,
      "maven": 4294,
      "Ġiter": 4295,
      "contains": 4296,
      "ĠBase": 4297,
      "ertific": 4298,
      "ĠTemplate": 4299,
      "ĠFunction": 4300,
      "IMARY": 4301,
      "Ġgenerate": 4302,
      "Ġfields": 4303,
      "ios": 4304,
      "ĠOr": 4305,
      "Ġapplications": 4306,
      "************": 4307,
      "variable": 4308,
      "modules": 4309,
      "mg": 4310,
      "0000000": 4311,
      "ĠAny": 4312,
      "70": 4313,
      "Ġbutton": 4314,
      "ances": 4315,
      "short": 4316,
      "Descript": 4317,
      "Tra": 4318,
      "wiz": 4319,
      "ĠDefault": 4320,
      "GRAM": 4321,
      "Word": 4322,
      "ead": 4323,
      "Ġpair": 4324,
      "bose": 4325,
      "dict": 4326,
      "alloc": 4327,
      "properties": 4328,
      "Plugin": 4329,
      "53": 4330,
      "ASS": 4331,
      "linux": 4332,
      "ployment": 4333,
      "Mo": 4334,
      "Ġbreak": 4335,
      "Ġliability": 4336,
      "cause": 4337,
      "history": 4338,
      "ĠEnd": 4339,
      "SQL": 4340,
      "LABEL": 4341,
      ".{": 4342,
      "ds": 4343,
      "Ġmerge": 4344,
      "ĠHttp": 4345,
      "job": 4346,
      "ĠProgram": 4347,
      "Microsoft": 4348,
      "range": 4349,
      "Ġ$(": 4350,
      "azy": 4351,
      "oard": 4352,
      "win": 4353,
      "fields": 4354,
      "Ġglobal": 4355,
      "Author": 4356,
      "ĠEnum": 4357,
      "loader": 4358,
      "Ġkeys": 4359,
      "PIO": 4360,
      "video": 4361,
      "way": 4362,
      "ĠÎ": 4363,
      "å¤": 4364,
      "pp": 4365,
      "-_-_-_-_": 4366,
      "Ġjob": 4367,
      "Ġrunning": 4368,
      "ĠContext": 4369,
      "bound": 4370,
      "ĠInteger": 4371,
      "Ġmodify": 4372,
      "sn": 4373,
      "Ġcould": 4374,
      "ĠVer": 4375,
      "Meta": 4376,
      "arp": 4377,
      "Ġ(->": 4378,
      "components": 4379,
      "Axis": 4380,
      "CS": 4381,
      "æķ": 4382,
      "Ġreason": 4383,
      "Ġdec": 4384,
      "proto": 4385,
      "Ġsecond": 4386,
      "vari": 4387,
      "400": 4388,
      "ai": 4389,
      "gmem": 4390,
      "aged": 4391,
      "ĠPublic": 4392,
      "Cal": 4393,
      "Names": 4394,
      "uk": 4395,
      "LUM": 4396,
      "Ġyear": 4397,
      "Ġjoin": 4398,
      "Custom": 4399,
      "duction": 4400,
      "ĠSp": 4401,
      "GUAGE": 4402,
      "1000": 4403,
      "Ġbind": 4404,
      "dest": 4405,
      "TION": 4406,
      "primary": 4407,
      "Ġqueue": 4408,
      "ety": 4409,
      "ĠUSE": 4410,
      "duce": 4411,
      "Ġemail": 4412,
      "zero": 4413,
      "ĊĊĠĠĠĠĠĠ": 4414,
      "ĠSQL": 4415,
      "Ġ13": 4416,
      "Ġhow": 4417,
      "condition": 4418,
      "region": 4419,
      "Ġpassed": 4420,
      "ĠNode": 4421,
      "ìĹ": 4422,
      "Ġ\"\",": 4423,
      "rust": 4424,
      "Ġword": 4425,
      "Ġchannel": 4426,
      "ECK": 4427,
      "});": 4428,
      "Ġtransaction": 4429,
      "same": 4430,
      "timeout": 4431,
      "41": 4432,
      "atar": 4433,
      "enum": 4434,
      "Ġ'/": 4435,
      "Full": 4436,
      "runtime": 4437,
      "Load": 4438,
      "Template": 4439,
      "Param": 4440,
      "Post": 4441,
      "itect": 4442,
      "Ð¾Ð": 4443,
      "Ġscale": 4444,
      "Ġgood": 4445,
      "alyzer": 4446,
      "Extension": 4447,
      "#!/": 4448,
      "DA": 4449,
      "Ġclean": 4450,
      "COUNT": 4451,
      "ducation": 4452,
      "ĠFoundation": 4453,
      "Ġnamespace": 4454,
      "untry": 4455,
      "ĠSP": 4456,
      "Su": 4457,
      "Del": 4458,
      "erial": 4459,
      "ising": 4460,
      "after": 4461,
      "Ġ\"_": 4462,
      "92": 4463,
      "hidden": 4464,
      "offset": 4465,
      "Selector": 4466,
      "@(": 4467,
      "ario": 4468,
      "look": 4469,
      "Storage": 4470,
      "Child": 4471,
      "umpkin": 4472,
      "Ġdocumentation": 4473,
      "springframework": 4474,
      "Ġgrant": 4475,
      "aybe": 4476,
      "Ġbytes": 4477,
      "anner": 4478,
      "Addr": 4479,
      "Ġswitch": 4480,
      "Ġdest": 4481,
      "Msg": 4482,
      "clock": 4483,
      "Ġ{%": 4484,
      "Ġbox": 4485,
      "Ġlay": 4486,
      "Ġ50": 4487,
      "ansport": 4488,
      "Ġelements": 4489,
      "rains": 4490,
      "/*!": 4491,
      "Assert": 4492,
      "ws": 4493,
      "Ġresults": 4494,
      "2019": 4495,
      "Library": 4496,
      "Ġapi": 4497,
      "Ph": 4498,
      "redentials": 4499,
      "My": 4500,
      "Shell": 4501,
      "Ã³": 4502,
      "Ġequal": 4503,
      "ãģ«": 4504,
      "Ġmkdir": 4505,
      "MIN": 4506,
      "Permission": 4507,
      "ĉĉĉĉĉ": 4508,
      "ĠHash": 4509,
      "vars": 4510,
      "Ġcommon": 4511,
      "Logger": 4512,
      "Ġneg": 4513,
      "switch": 4514,
      "pad": 4515,
      "Ġtheme": 4516,
      "endif": 4517,
      "Ġhandler": 4518,
      "ĠTODO": 4519,
      "ĠControl": 4520,
      "real": 4521,
      "Show": 4522,
      "groundColor": 4523,
      "eer": 4524,
      "ism": 4525,
      "Ġconvert": 4526,
      "while": 4527,
      "SO": 4528,
      "break": 4529,
      "black": 4530,
      "Cmd": 4531,
      "Go": 4532,
      "Ġ\\\\": 4533,
      "EDURE": 4534,
      "python": 4535,
      "Ġcollection": 4536,
      "done": 4537,
      "('/": 4538,
      "character": 4539,
      "manager": 4540,
      "inct": 4541,
      "acs": 4542,
      "Ġdraw": 4543,
      "ĊĉĠĠĠ": 4544,
      "1234": 4545,
      "KEY": 4546,
      "ĠReturns": 4547,
      "=${": 4548,
      "Ġnpm": 4549,
      "Ag": 4550,
      "hing": 4551,
      "CM": 4552,
      "Cho": 4553,
      "mer": 4554,
      "neg": 4555,
      "oh": 4556,
      "ilities": 4557,
      "tempt": 4558,
      "hex": 4559,
      "Ġident": 4560,
      "ĠHTTP": 4561,
      "Ġdon": 4562,
      "ĠEXIST": 4563,
      "ROP": 4564,
      "random": 4565,
      "ĠInit": 4566,
      "vals": 4567,
      "ĠBool": 4568,
      "ĊĠĠĠĠĠĠĠĠĠĠĠĠĠĠĠĠĠĠĠĠĠĠ": 4569,
      "shift": 4570,
      "serve": 4571,
      "Ġassoc": 4572,
      "Ġdescribe": 4573,
      "ALTER": 4574,
      "reverse": 4575,
      "BER": 4576,
      "Each": 4577,
      "gres": 4578,
      "ssages": 4579,
      "Ġbecause": 4580,
      "Ġ([": 4581,
      "validate": 4582,
      "white": 4583,
      "RP": 4584,
      "ĠVAR": 4585,
      "attle": 4586,
      "ddr": 4587,
      ")/": 4588,
      "93": 4589,
      "cli": 4590,
      "ĠMicrosoft": 4591,
      "ãĤ¹": 4592,
      ")-": 4593,
      "åĽ": 4594,
      "Ġ#:": 4595,
      "ĠTRUE": 4596,
      "LUMN": 4597,
      "ĠEXISTS": 4598,
      "Cache": 4599,
      "mean": 4600,
      "],[": 4601,
      "Ġuses": 4602,
      "(?": 4603,
      "51": 4604,
      "Iter": 4605,
      "atio": 4606,
      "ital": 4607,
      "Ġbr": 4608,
      "ium": 4609,
      "Profile": 4610,
      ":/": 4611,
      "IVE": 4612,
      "Network": 4613,
      "Track": 4614,
      "cycle": 4615,
      "unded": 4616,
      "Ġ*>": 4617,
      "ragment": 4618,
      "FSET": 4619,
      "asa": 4620,
      "--------------------------------------------------------------------": 4621,
      "ayload": 4622,
      "auto": 4623,
      "othing": 4624,
      "Transaction": 4625,
      "Ġreq": 4626,
      "ĠClient": 4627,
      "quired": 4628,
      "foreach": 4629,
      "ua": 4630,
      "Ġutil": 4631,
      "Rest": 4632,
      "Listener": 4633,
      "9999": 4634,
      "Net": 4635,
      "utable": 4636,
      "Helper": 4637,
      "Argument": 4638,
      "routine": 4639,
      "NE": 4640,
      "den": 4641,
      "Entity": 4642,
      "ĠPER": 4643,
      "Ġshift": 4644,
      "Ġtool": 4645,
      "It": 4646,
      "alias": 4647,
      "Ġpip": 4648,
      ")))))": 4649,
      "Ġgc": 4650,
      "2017": 4651,
      "DATE": 4652,
      "clojure": 4653,
      "sq": 4654,
      "æĪ": 4655,
      "Tool": 4656,
      "CONT": 4657,
      "blem": 4658,
      "Ġbetween": 4659,
      "strap": 4660,
      "created": 4661,
      "Job": 4662,
      "bot": 4663,
      "UTF": 4664,
      "TL": 4665,
      "ĠTask": 4666,
      "Zones": 4667,
      "alog": 4668,
      "Ġdependencies": 4669,
      "ifest": 4670,
      "ired": 4671,
      "Ġidentifier": 4672,
      "500": 4673,
      "Menu": 4674,
      "Ġnet": 4675,
      "apter": 4676,
      "errors": 4677,
      "Ġ64": 4678,
      "Ġframe": 4679,
      "Ġsymbol": 4680,
      "Results": 4681,
      "74": 4682,
      "Ġhel": 4683,
      "čč": 4684,
      "ISE": 4685,
      "ef": 4686,
      "known": 4687,
      "aging": 4688,
      "kt": 4689,
      "Ġê": 4690,
      "ilar": 4691,
      "ĠLib": 4692,
      "Ġapply": 4693,
      "EGIN": 4694,
      "dul": 4695,
      "vc": 4696,
      "ority": 4697,
      "Ġreadonly": 4698,
      "rece": 4699,
      "ĠEducation": 4700,
      "Ġinitialize": 4701,
      "Edit": 4702,
      "math": 4703,
      "ĠOpen": 4704,
      "ãĥĪ": 4705,
      "ctrl": 4706,
      "spon": 4707,
      "Ġgenerated": 4708,
      "Ġtemplate": 4709,
      "ĠDiv": 4710,
      "ĠNON": 4711,
      "emacs": 4712,
      "Values": 4713,
      "ritical": 4714,
      "Ġplace": 4715,
      "Ġquot": 4716,
      "ĠGeneral": 4717,
      "{-": 4718,
      "[#:": 4719,
      "Socket": 4720,
      "acl": 4721,
      "Ġdefinition": 4722,
      "-}": 4723,
      "ACT": 4724,
      "Stack": 4725,
      "Const": 4726,
      "igration": 4727,
      "ado": 4728,
      "Execut": 4729,
      "ecess": 4730,
      "seconds": 4731,
      "Descriptor": 4732,
      "ĠLAN": 4733,
      "Ġnone": 4734,
      "2015": 4735,
      "Ġmetadata": 4736,
      "Converter": 4737,
      "ĠtimelineProposition": 4738,
      "ĠLIC": 4739,
      "pa": 4740,
      "Ġest": 4741,
      "Ġfailure": 4742,
      "Current": 4743,
      "Reference": 4744,
      "Ġmemory": 4745,
      ">&": 4746,
      "alp": 4747,
      "termin": 4748,
      "helper": 4749,
      "WS": 4750,
      "machine": 4751,
      "gest": 4752,
      "plugins": 4753,
      "Ġ%>%": 4754,
      "69": 4755,
      "Ġendif": 4756,
      "material": 4757,
      "II": 4758,
      "Support": 4759,
      "USE": 4760,
      "Font": 4761,
      "{@": 4762,
      "Ġthread": 4763,
      "Ġalready": 4764,
      "ĠPROVID": 4765,
      "ĠAUTO": 4766,
      "Ġsqlite": 4767,
      "review": 4768,
      "=\"#": 4769,
      "ĊĠĠĠĠĠĠĠĠĠĠĠĠĠĠĠĠĠĠĠĠĠĠĠĠĠĠĠĠ": 4770,
      "reader": 4771,
      "mk": 4772,
      "ĠÃ": 4773,
      "alpha": 4774,
      "quiv": 4775,
      "Ġsearch": 4776,
      "Ġsequence": 4777,
      "Ġ%%": 4778,
      "hys": 4779,
      "fact": 4780,
      "ĠCol": 4781,
      "ĠEducationZones": 4782,
      "Drawing": 4783,
      "vec": 4784,
      "engine": 4785,
      "ľâĶĢâĶĢ": 4786,
      "ĠLong": 4787,
      "Ġexpression": 4788,
      "Ġreset": 4789,
      "igtest": 4790,
      "ĠGroup": 4791,
      "?]{": 4792,
      "MB": 4793,
      "Ġmenu": 4794,
      "nchron": 4795,
      "Invalid": 4796,
      "ĠLICENSE": 4797,
      "73": 4798,
      "Ġmultiple": 4799,
      "flag": 4800,
      "Opt": 4801,
      "PAR": 4802,
      "Ġdone": 4803,
      "Ġdifferent": 4804,
      "68": 4805,
      "Ġet": 4806,
      "ADDR": 4807,
      "edia": 4808,
      "ĠNumber": 4809,
      "fetch": 4810,
      ".'": 4811,
      "Ġque": 4812,
      "platform": 4813,
      "Ġreturned": 4814,
      "[,": 4815,
      "Ġsave": 4816,
      "CORD": 4817,
      "describe": 4818,
      "INGE": 4819,
      "Ġcop": 4820,
      "Returns": 4821,
      "Ġerrors": 4822,
      "Ġmg": 4823,
      "ROOT": 4824,
      "jl": 4825,
      "protocol": 4826,
      "Signature": 4827,
      "roke": 4828,
      "utes": 4829,
      "Simple": 4830,
      "Ġdir": 4831,
      "Ġcallback": 4832,
      "arri": 4833,
      "ĠSH": 4834,
      "pool": 4835,
      "UNCTION": 4836,
      "topic": 4837,
      "Ġsyntax": 4838,
      "mii": 4839,
      "Fix": 4840,
      "yes": 4841,
      "-----------": 4842,
      "autify": 4843,
      "shape": 4844,
      "FRINGE": 4845,
      "microsoft": 4846,
      "ĠEV": 4847,
      "72": 4848,
      "dig": 4849,
      "Ġspecial": 4850,
      "panel": 4851,
      "quot": 4852,
      "aste": 4853,
      "ĠJSON": 4854,
      "Render": 4855,
      "Ġ'@": 4856,
      "vers": 4857,
      "ALSE": 4858,
      "Ġtimeout": 4859,
      "skip": 4860,
      "91": 4861,
      "SC": 4862,
      "dot": 4863,
      "crement": 4864,
      "Ġ\"%": 4865,
      "ssl": 4866,
      "ç»": 4867,
      "Product": 4868,
      "Ġamount": 4869,
      "mpt": 4870,
      "Ġmac": 4871,
      "acters": 4872,
      "edit": 4873,
      "('./": 4874,
      "FRINGEMENT": 4875,
      "Equals": 4876,
      "}\",": 4877,
      "Ġcons": 4878,
      "ĠCOLUMN": 4879,
      "transform": 4880,
      "ĠWHEN": 4881,
      "Enter": 4882,
      "GET": 4883,
      "Ġfi": 4884,
      "trace": 4885,
      "::{": 4886,
      "Ġsci": 4887,
      "Ġcomm": 4888,
      "ĠDebugStub": 4889,
      "Ġ{'": 4890,
      "ĠMon": 4891,
      "_,": 4892,
      "Ġmark": 4893,
      "Example": 4894,
      "?:": 4895,
      "NULL": 4896,
      "Ġfetch": 4897,
      "keywords": 4898,
      "CHECK": 4899,
      "Policy": 4900,
      "Ġfoo": 4901,
      "claimer": 4902,
      "Cell": 4903,
      "EST": 4904,
      "atural": 4905,
      "screen": 4906,
      "Dist": 4907,
      "HOR": 4908,
      "ys": 4909,
      "Ġfa": 4910,
      "Ġgame": 4911,
      "Ġcontinue": 4912,
      "ators": 4913,
      "services": 4914,
      "gl": 4915,
      "pass": 4916,
      "keep": 4917,
      "2021": 4918,
      "alk": 4919,
      "Ġcmd": 4920,
      "router": 4921,
      "Ġproperties": 4922,
      "ĠGPIO": 4923,
      "ba": 4924,
      "åľ": 4925,
      "æĺ": 4926,
      "Ġborder": 4927,
      "Ġmu": 4928,
      "=\"/": 4929,
      "Ġ19": 4930,
      "ictionary": 4931,
      "Ġmed": 4932,
      "Parser": 4933,
      "dif": 4934,
      "ĠLoc": 4935,
      "æķ°": 4936,
      "ĠPERFORM": 4937,
      "Ġdrop": 4938,
      "Reg": 4939,
      "azure": 4940,
      "tags": 4941,
      "Ġ<:": 4942,
      "ĠNo": 4943,
      "Ġalias": 4944,
      "ä¸Ģ": 4945,
      "Ġmove": 4946,
      "Some": 4947,
      "uring": 4948,
      "Ġmaximum": 4949,
      "pid": 4950,
      "alance": 4951,
      "pi": 4952,
      "Ġpumpkin": 4953,
      "ged": 4954,
      "Ġconnect": 4955,
      "interface": 4956,
      "rules": 4957,
      "Ġassign": 4958,
      "ITS": 4959,
      "]{@": 4960,
      "ragma": 4961,
      "Ġinc": 4962,
      "awn": 4963,
      "UID": 4964,
      "Ġ56": 4965,
      "cker": 4966,
      "Main": 4967,
      "[<": 4968,
      "warn": 4969,
      "ĠĠĠĠĠĠĠĠĠĠĠĠĠĠĠĠĠĠĠĠĠĠ": 4970,
      "ĠStart": 4971,
      "svg": 4972,
      "{'": 4973,
      "shared": 4974,
      "ration": 4975,
      "exists": 4976,
      "ĠAd": 4977,
      "ëĭ¤": 4978,
      "(+": 4979,
      "timer": 4980,
      "MIT": 4981,
      "ĊĠĠĠĠĠĠĠĠĠĠĠĠĠĠĠĠĠĠĠĠĠĠĠĠĠĠ": 4982,
      "iag": 4983,
      "Ġ\"--": 4984,
      "Ġwr": 4985,
      "CTOR": 4986,
      "visor": 4987,
      "Ġdevice": 4988,
      "Ġwhat": 4989,
      "ginx": 4990,
      "decl": 4991,
      "thread": 4992,
      "OUTPUT": 4993,
      "Azure": 4994,
      "Ġdatabase": 4995,
      "Ġcd": 4996,
      "Ġsplit": 4997,
      "free": 4998,
      "chain": 4999,
      "defmodule": 5000,
      "Ġgoal": 5001,
      "One": 5002,
      "jav": 5003,
      "Ġ).": 5004,
      "Ġpass": 5005,
      "Ġshell": 5006,
      "ĠMIT": 5007,
      "Ġuint": 5008,
      "CRIP": 5009,
      "Ġicon": 5010,
      "Symbol": 5011,
      "ĠLANGUAGE": 5012,
      ")?": 5013,
      "Kind": 5014,
      "dom": 5015,
      "tab": 5016,
      "dep": 5017,
      "enabled": 5018,
      "Ġworld": 5019,
      "Ġrec": 5020,
      "argument": 5021,
      "Ġrx": 5022,
      "constraint": 5023,
      "points": 5024,
      "rule": 5025,
      "Ġfin": 5026,
      "Ġdetails": 5027,
      "stru": 5028,
      "force": 5029,
      "Display": 5030,
      "ĠVARCHAR": 5031,
      "\"`": 5032,
      "theme": 5033,
      "Cre": 5034,
      "Last": 5035,
      "Window": 5036,
      "some": 5037,
      "Sync": 5038,
      "Ġ<$": 5039,
      "strong": 5040,
      "Ġadded": 5041,
      "ĠPRIMARY": 5042,
      "cover": 5043,
      "ĠSUB": 5044,
      "________": 5045,
      "Lim": 5046,
      "Ġprop": 5047,
      "1111": 5048,
      "greg": 5049,
      "ĠĠĠĠĠĠĠĠĠĠĠĠĠĠĠĠĠĠĠĠĠĠĠĠĠĠĠĠĠĠĠĠĠĠĠĠĠĠĠĠĠĠĠĠĠĠĠĠĠĠĠĠĠĠĠĠĠĠĠĠĠĠĠĠĠĠĠĠĠĠĠĠĠ": 5050,
      "ĠCHAR": 5051,
      "itecture": 5052,
      "uation": 5053,
      "Ġold": 5054,
      "schedule": 5055,
      "xyz": 5056,
      "Icon": 5057,
      "IMP": 5058,
      "DIS": 5059,
      "Use": 5060,
      "fb": 5061,
      "ĠMY": 5062,
      "Ġ31": 5063,
      "...)": 5064,
      "52": 5065,
      "Ġfill": 5066,
      "Ġfold": 5067,
      "lower": 5068,
      "{-#": 5069,
      "Ġbuilder": 5070,
      "resol": 5071,
      "Ġ?>": 5072,
      "ĠâĶľâĶĢâĶĢ": 5073,
      "exe": 5074,
      "Ġmeta": 5075,
      "contact": 5076,
      "ãģĮ": 5077,
      "ecessary": 5078,
      "Ġexec": 5079,
      "ĠOutput": 5080,
      "ĠLoad": 5081,
      "(()": 5082,
      "IRE": 5083,
      "ircle": 5084,
      "Ġ#-}": 5085,
      "Ġdisclaimer": 5086,
      "authors": 5087,
      "beautify": 5088,
      "Ġterms": 5089,
      "Duration": 5090,
      "Next": 5091,
      "cut": 5092,
      "itter": 5093,
      "ĠAb": 5094,
      "ĠRun": 5095,
      "PU": 5096,
      "ĠARE": 5097,
      "Conf": 5098,
      "Ġ400": 5099,
      "Mandatory": 5100,
      "Ġbar": 5101,
      "Ġrect": 5102,
      "Ġexception": 5103,
      "Ġspace": 5104,
      "kotlin": 5105,
      "Are": 5106,
      "Ġ24": 5107,
      "åº": 5108,
      "Ġts": 5109,
      "Ġ.{": 5110,
      "RI": 5111,
      "Ġmargin": 5112,
      "ae": 5113,
      "UST": 5114,
      "hs": 5115,
      "Ġpadding": 5116,
      "Fail": 5117,
      "ĠRed": 5118,
      "prec": 5119,
      "cccc": 5120,
      "ZE": 5121,
      "jor": 5122,
      "alysis": 5123,
      "rupt": 5124,
      "Ġpara": 5125,
      "(%": 5126,
      "Feature": 5127,
      "basic": 5128,
      "ric": 5129,
      "Ã¡": 5130,
      "ĠNothing": 5131,
      "available": 5132,
      "subscribe": 5133,
      "Ġskip": 5134,
      "convert": 5135,
      "Ġrepository": 5136,
      "Ġgeom": 5137,
      "JS": 5138,
      "Power": 5139,
      "rst": 5140,
      "{:": 5141,
      "ĠOk": 5142,
      "INX": 5143,
      "rapper": 5144,
      "ales": 5145,
      "macro": 5146,
      "cg": 5147,
      "Local": 5148,
      "addresses": 5149,
      "ĠXIL": 5150,
      "flags": 5151,
      "ĠXILINX": 5152,
      "Bl": 5153,
      "Right": 5154,
      "ĠAuthor": 5155,
      "ategories": 5156,
      "deb": 5157,
      "ĠFl": 5158,
      "INFO": 5159,
      "Ġconn": 5160,
      "BM": 5161,
      "ĠStr": 5162,
      "Ġlook": 5163,
      "ĠDISCLAIMER": 5164,
      "Hub": 5165,
      "Ty": 5166,
      "directory": 5167,
      "Ġ!,": 5168,
      "numeric": 5169,
      "AMP": 5170,
      "ĊĉĉĠ": 5171,
      "STOR": 5172,
      "scope": 5173,
      "ascript": 5174,
      "Ġ_)": 5175,
      "Ġflag": 5176,
      "Sql": 5177,
      "illi": 5178,
      "scal": 5179,
      "Ġcontroller": 5180,
      ".}": 5181,
      "Parent": 5182,
      "Ġcap": 5183,
      "Ġ18": 5184,
      "AGES": 5185,
      "ĠExample": 5186,
      "ulation": 5187,
      "=\"{{": 5188,
      "ĠLO": 5189,
      "Ġ&&\\": 5190,
      "warning": 5191,
      "Ġcurl": 5192,
      "lates": 5193,
      "Ġč": 5194,
      "Ġ[<": 5195,
      "uplic": 5196,
      "Ġshall": 5197,
      "ĠProcess": 5198,
      "akes": 5199,
      "Ġvector": 5200,
      "Ġlate": 5201,
      "ĠWHERE": 5202,
      "Ġ{\"": 5203,
      "mob": 5204,
      "Red": 5205,
      "floor": 5206,
      "tle": 5207,
      "Ġcho": 5208,
      "Ġtheir": 5209,
      "AbstractArray": 5210,
      "tml": 5211,
      "wnd": 5212,
      "cogn": 5213,
      "ively": 5214,
      "WE": 5215,
      "proxy": 5216,
      "3333": 5217,
      "FS": 5218,
      "margin": 5219,
      "{$": 5220,
      "ĠModule": 5221,
      "Ġprops": 5222,
      "fluent": 5223,
      "Struct": 5224,
      "ĠAPP": 5225,
      "oriz": 5226,
      "Ġzero": 5227,
      "################################################################": 5228,
      "Ġqual": 5229,
      "inv": 5230,
      "ĠCo": 5231,
      "images": 5232,
      "OPT": 5233,
      "ensor": 5234,
      "RY": 5235,
      "Mat": 5236,
      "Orig": 5237,
      "btn": 5238,
      "}</": 5239,
      "adow": 5240,
      "olume": 5241,
      "___": 5242,
      "acet": 5243,
      "idual": 5244,
      "peed": 5245,
      "Hello": 5246,
      "alled": 5247,
      "aries": 5248,
      "Ġbound": 5249,
      "=$(": 5250,
      "Ġitems": 5251,
      "Ġsupported": 5252,
      "execution": 5253,
      "\"],": 5254,
      "El": 5255,
      "xb": 5256,
      "ĠPort": 5257,
      "Delete": 5258,
      "results": 5259,
      "events": 5260,
      "300": 5261,
      "ges": 5262,
      "ĊĊĉĉ": 5263,
      "Ġdocker": 5264,
      "Ġappend": 5265,
      "EXEC": 5266,
      "small": 5267,
      "ipeline": 5268,
      "ĠOptional": 5269,
      "toString": 5270,
      "ĊĊĊ": 5271,
      "plicit": 5272,
      "Ġentity": 5273,
      "Fin": 5274,
      "dk": 5275,
      "ĠDATA": 5276,
      "obile": 5277,
      "CREMENT": 5278,
      "First": 5279,
      "Ġ(<": 5280,
      "lique": 5281,
      "Activity": 5282,
      "]:": 5283,
      "0101": 5284,
      "Protocol": 5285,
      "parser": 5286,
      "`;": 5287,
      "asset": 5288,
      "Eng": 5289,
      "Generic": 5290,
      "Eq": 5291,
      "Ġfeatures": 5292,
      "Ġpop": 5293,
      "Ġinternal": 5294,
      "ĠNot": 5295,
      "].[": 5296,
      "Ġmean": 5297,
      "Parse": 5298,
      "correct": 5299,
      "Ac": 5300,
      "Ġ##": 5301,
      "reet": 5302,
      "Ġte": 5303,
      "Ġnetwork": 5304,
      "come": 5305,
      "usage": 5306,
      "ĠMem": 5307,
      "para": 5308,
      "Ġvari": 5309,
      "returns": 5310,
      "attice": 5311,
      "catch": 5312,
      "ja": 5313,
      "ruby": 5314,
      "scriptor": 5315,
      "Ġclose": 5316,
      "Ġexisting": 5317,
      "Lex": 5318,
      "Pattern": 5319,
      "'])": 5320,
      "Ins": 5321,
      "127": 5322,
      "Definition": 5323,
      "diff": 5324,
      "Ġalign": 5325,
      "Ġconstraint": 5326,
      "istribution": 5327,
      "feature": 5328,
      "ĊĠĠĠĠĠĠĠĠĠĠĠĠĠĠĠĠĠĠĠĠĠĠĠĠĠĠĠĠĠ": 5329,
      "curity": 5330,
      "iddleware": 5331,
      "Kit": 5332,
      "Rel": 5333,
      "yaml": 5334,
      "accept": 5335,
      "ROL": 5336,
      "loy": 5337,
      "Ġ[])": 5338,
      "ĠParseState": 5339,
      "Ġvirtual": 5340,
      "redirect": 5341,
      "Ġreference": 5342,
      "ĠAs": 5343,
      "ONE": 5344,
      "ĠPROCEDURE": 5345,
      "brains": 5346,
      "family": 5347,
      "ĊĉĠ": 5348,
      "ught": 5349,
      "havior": 5350,
      "ĠImport": 5351,
      "fire": 5352,
      "acle": 5353,
      "ĠSize": 5354,
      "Ġ#[": 5355,
      "ãĤ¯": 5356,
      "Ġgen": 5357,
      "ather": 5358,
      "~\",": 5359,
      "AMETER": 5360,
      "children": 5361,
      "jetbrains": 5362,
      ">=": 5363,
      "]\"": 5364,
      "into": 5365,
      "ICATION": 5366,
      "DateTime": 5367,
      "Ġoptional": 5368,
      "Av": 5369,
      "bad": 5370,
      "Ġwget": 5371,
      "COM": 5372,
      "nodes": 5373,
      "blank": 5374,
      "61": 5375,
      "PT": 5376,
      "Uri": 5377,
      "fake": 5378,
      "Ġdummy": 5379,
      "apk": 5380,
      "quential": 5381,
      "Common": 5382,
      "Ow": 5383,
      "stats": 5384,
      "***": 5385,
      "Ġextension": 5386,
      "Ġedit": 5387,
      "Ġexact": 5388,
      "Grid": 5389,
      "Real": 5390,
      "Ind": 5391,
      "Install": 5392,
      "ivers": 5393,
      "ãģĻãĤĭ": 5394,
      "mediate": 5395,
      "2000": 5396,
      "hl": 5397,
      "Ð»": 5398,
      "ifn": 5399,
      "<-": 5400,
      "LD": 5401,
      "ole": 5402,
      "Ġraw": 5403,
      "uuid": 5404,
      "hr": 5405,
      "serialize": 5406,
      "ĠResponse": 5407,
      "Active": 5408,
      "Ġimg": 5409,
      "eries": 5410,
      "Ġtotal": 5411,
      "alert": 5412,
      "uide": 5413,
      "before": 5414,
      "Ġencoding": 5415,
      "Sl": 5416,
      "è®": 5417,
      "()]": 5418,
      "ĠDAM": 5419,
      "IDENT": 5420,
      "veloper": 5421,
      "False": 5422,
      "ably": 5423,
      "ĠTable": 5424,
      "\"]{": 5425,
      "generate": 5426,
      "hello": 5427,
      "\"])": 5428,
      ")=": 5429,
      "ience": 5430,
      "Ġtz": 5431,
      "Ġbits": 5432,
      "Ġ21": 5433,
      "Tests": 5434,
      "FIN": 5435,
      "widget": 5436,
      "ĠINPUT": 5437,
      "scripts": 5438,
      "Ġfilename": 5439,
      "Ġtimestamp": 5440,
      "gnore": 5441,
      "logger": 5442,
      "ĊĠĠĠĠĠĠĠĠĠĠĠĠĠĠĠĠĠĠĠĠĠĠĠĠĠĠĠĠĠĠĠĠĠĠĠĠĠĠĠĠĠĠĠ": 5443,
      "You": 5444,
      "urface": 5445,
      "resolve": 5446,
      "Ġpublish": 5447,
      "annotation": 5448,
      "æī": 5449,
      "ality": 5450,
      "Variable": 5451,
      "Changed": 5452,
      "ANTI": 5453,
      "program": 5454,
      "82": 5455,
      "napi": 5456,
      "padding": 5457,
      "tl": 5458,
      "éĢ": 5459,
      "ched": 5460,
      "worker": 5461,
      "ĠINSTANTI": 5462,
      "Dark": 5463,
      "uget": 5464,
      "uzz": 5465,
      "vlet": 5466,
      "imate": 5467,
      "Declaration": 5468,
      "memory": 5469,
      "Counter": 5470,
      "Tree": 5471,
      "ggle": 5472,
      "Ġwould": 5473,
      "adius": 5474,
      "Ġmigtest": 5475,
      "Ġvia": 5476,
      "Ġgrid": 5477,
      "ALES": 5478,
      "Ġxmm": 5479,
      "PROJECT": 5480,
      "Ġxmlns": 5481,
      "eslint": 5482,
      "iase": 5483,
      "jar": 5484,
      "ĠMod": 5485,
      "ãĥ«": 5486,
      "ao": 5487,
      "ĠPO": 5488,
      "Expect": 5489,
      "ĠProject": 5490,
      "ĠService": 5491,
      "SUB": 5492,
      "requ": 5493,
      "ura": 5494,
      "ĠBlock": 5495,
      "packet": 5496,
      "ncy": 5497,
      "Ġlaws": 5498,
      "segment": 5499,
      "Ġdat": 5500,
      "controller": 5501,
      "Ċĉĉĉĉĉĉ": 5502,
      "CONTROL": 5503,
      "Ġ'',": 5504,
      "fil": 5505,
      "pb": 5506,
      "delta": 5507,
      "ando": 5508,
      "Serializer": 5509,
      "eee": 5510,
      "ĠDouble": 5511,
      "FT": 5512,
      "ĠMessage": 5513,
      "matrix": 5514,
      "ĠBegin": 5515,
      "origin": 5516,
      "bold": 5517,
      "Ġevery": 5518,
      "2020": 5519,
      "Ġboard": 5520,
      "Ġimplicit": 5521,
      "Err": 5522,
      "Mock": 5523,
      "71": 5524,
      "BIN": 5525,
      "LY": 5526,
      "Ġtyp": 5527,
      "ribble": 5528,
      "Ġprec": 5529,
      "Gen": 5530,
      "Ġfailed": 5531,
      "ĠMA": 5532,
      "APP": 5533,
      "Layer": 5534,
      "Exp": 5535,
      "ãģ¯": 5536,
      "tbl": 5537,
      "INCREMENT": 5538,
      "Props": 5539,
      "Ġcorrespon": 5540,
      "Mov": 5541,
      "SB": 5542,
      "è¦": 5543,
      "ixels": 5544,
      "Ġallocator": 5545,
      "Ġround": 5546,
      "arnings": 5547,
      "ĠINSTANTIATION": 5548,
      "Writer": 5549,
      "Ġdimension": 5550,
      "Cast": 5551,
      "inner": 5552,
      "compose": 5553,
      "ever": 5554,
      "Ġbtn": 5555,
      "used": 5556,
      "Batch": 5557,
      "Step": 5558,
      "Ġtake": 5559,
      "Ġsocket": 5560,
      "ARCH": 5561,
      "CODE": 5562,
      "ĠGNU": 5563,
      ">.": 5564,
      "INPUT": 5565,
      "PC": 5566,
      "hd": 5567,
      "Ñĥ": 5568,
      "Ġconsole": 5569,
      "ĠUtil": 5570,
      "WW": 5571,
      "Convert": 5572,
      "iform": 5573,
      "commit": 5574,
      "Delegate": 5575,
      "SW": 5576,
      "UDE": 5577,
      "è¿": 5578,
      "rec": 5579,
      "008": 5580,
      "examples": 5581,
      "tw": 5582,
      "ĠPower": 5583,
      "Ġdepend": 5584,
      "ised": 5585,
      "ĠAzure": 5586,
      "Ġlst": 5587,
      "Ġexpr": 5588,
      "ENABLE": 5589,
      "Ġtrack": 5590,
      "scr": 5591,
      "untu": 5592,
      "CD": 5593,
      "faces": 5594,
      "Scale": 5595,
      "DROP": 5596,
      "ĠAcc": 5597,
      "ĠEd": 5598,
      "Ġplatform": 5599,
      "allet": 5600,
      "ĠWindows": 5601,
      "COD": 5602,
      "Timeout": 5603,
      "deps": 5604,
      "Ġsure": 5605,
      "RESP": 5606,
      "ãĥĹ": 5607,
      "Ġ...)": 5608,
      "Dependencies": 5609,
      "Collections": 5610,
      "Lines": 5611,
      "XML": 5612,
      "jpg": 5613,
      "Ġ```": 5614,
      "architecture": 5615,
      "pf": 5616,
      "assoc": 5617,
      "MPI": 5618,
      "Ġ??": 5619,
      "Ġclick": 5620,
      "ĠSpec": 5621,
      "ategy": 5622,
      "Columns": 5623,
      "'-": 5624,
      "ĠDescription": 5625,
      "starter": 5626,
      "Ġsafe": 5627,
      "Ġ'./": 5628,
      "ĠCl": 5629,
      "cluster": 5630,
      "LICATION": 5631,
      "Ġperiod": 5632,
      "gui": 5633,
      "Contact": 5634,
      "parameters": 5635,
      "HER": 5636,
      "Off": 5637,
      "Old": 5638,
      "cf": 5639,
      "tty": 5640,
      "Ġms": 5641,
      "ĠSw": 5642,
      "Failed": 5643,
      "ĠNUM": 5644,
      "Ġunique": 5645,
      "icker": 5646,
      "Now": 5647,
      "===": 5648,
      "endar": 5649,
      "Ġieee": 5650,
      "hand": 5651,
      "loaded": 5652,
      "ement": 5653,
      "Ġ25": 5654,
      "Ġcompile": 5655,
      "nbsp": 5656,
      "Ġexport": 5657,
      "Ġdisable": 5658,
      "Ġfact": 5659,
      "unwrap": 5660,
      "Management": 5661,
      ";&": 5662,
      "Ãª": 5663,
      "Ġprefix": 5664,
      "=\"\"": 5665,
      "ãĥª": 5666,
      ">();": 5667,
      "language": 5668,
      "Ġ02": 5669,
      "Insets": 5670,
      "ixel": 5671,
      "ĠReact": 5672,
      "Ġintent": 5673,
      "ĠChange": 5674,
      "Ġair": 5675,
      "Ġstack": 5676,
      "Validate": 5677,
      "grade": 5678,
      "ĠDivision": 5679,
      "?>": 5680,
      "ping": 5681,
      "concat": 5682,
      "bas": 5683,
      "ONG": 5684,
      "ĠArg": 5685,
      "Ġ<$>": 5686,
      "81": 5687,
      "ĠPython": 5688,
      "ĠWeb": 5689,
      "EW": 5690,
      "batch": 5691,
      "wik": 5692,
      "LAG": 5693,
      "Operation": 5694,
      "'\"": 5695,
      "FC": 5696,
      "ino": 5697,
      "ĠSource": 5698,
      "colate": 5699,
      "Ġsubroutine": 5700,
      "=/": 5701,
      "lab": 5702,
      "Release": 5703,
      "Required": 5704,
      "Ġunsigned": 5705,
      "velopment": 5706,
      "DC": 5707,
      "NET": 5708,
      "Ġptr": 5709,
      "undefined": 5710,
      "rowser": 5711,
      "Environment": 5712,
      ";/": 5713,
      "Ret": 5714,
      "å½": 5715,
      "raise": 5716,
      "Ġtranslate": 5717,
      "Ġaccept": 5718,
      "RX": 5719,
      "extra": 5720,
      "ĠMain": 5721,
      "plac": 5722,
      "Ġxs": 5723,
      "Ġbased": 5724,
      "=(": 5725,
      "ateway": 5726,
      "ĠAT": 5727,
      "Internal": 5728,
      "Ġdefp": 5729,
      "ressed": 5730,
      "duler": 5731,
      "IMPLEMENT": 5732,
      "ulse": 5733,
      "astic": 5734,
      "ĠPROGRAM": 5735,
      ")\")": 5736,
      "OK": 5737,
      "bat": 5738,
      "junit": 5739,
      "ACLK": 5740,
      "!!!!": 5741,
      "ike": 5742,
      "alle": 5743,
      "Ġeax": 5744,
      "ĠIndex": 5745,
      "Binding": 5746,
      "Ġ199": 5747,
      "Ð°Ð": 5748,
      "Play": 5749,
      "bro": 5750,
      "Ġtort": 5751,
      "ĠMy": 5752,
      "ĠALTER": 5753,
      "////////////////////////////////": 5754,
      "ordinate": 5755,
      "QUE": 5756,
      "Should": 5757,
      "leton": 5758,
      "ĠVar": 5759,
      "Ġgetter": 5760,
      ".,": 5761,
      "database": 5762,
      "lished": 5763,
      "Arch": 5764,
      "UNIMPLEMENT": 5765,
      "Ġdoesn": 5766,
      "UNIMPLEMENTED": 5767,
      "multiple": 5768,
      "åĩ": 5769,
      "metr": 5770,
      "Progress": 5771,
      "ĠclassName": 5772,
      "Ġalt": 5773,
      "Ġ2019": 5774,
      "Ġassociated": 5775,
      "Dialog": 5776,
      "border": 5777,
      "mu": 5778,
      "Ġ(/": 5779,
      "igation": 5780,
      "Ġscribble": 5781,
      "Graph": 5782,
      "Partition": 5783,
      "era": 5784,
      "Ġconnections": 5785,
      "ĠAUTHOR": 5786,
      "FP": 5787,
      "lm": 5788,
      "ness": 5789,
      "wall": 5790,
      "Ġpack": 5791,
      "asm": 5792,
      "ferences": 5793,
      "attribute": 5794,
      "anguages": 5795,
      "anc": 5796,
      "Ġoriginal": 5797,
      "Br": 5798,
      "Xml": 5799,
      "}\\": 5800,
      "ĠPos": 5801,
      "Ġhand": 5802,
      "Ġdecode": 5803,
      "Only": 5804,
      "Mark": 5805,
      "ids": 5806,
      "Strings": 5807,
      "Ġcounter": 5808,
      ".\",": 5809,
      "clean": 5810,
      "iness": 5811,
      "()->": 5812,
      "Ġsys": 5813,
      "Memory": 5814,
      "jo": 5815,
      "ëĬ": 5816,
      "Topic": 5817,
      "DES": 5818,
      "Ġdel": 5819,
      "ATER": 5820,
      "Ġcontribut": 5821,
      "Ġchanges": 5822,
      "localhost": 5823,
      "---------------": 5824,
      "GEN": 5825,
      "VC": 5826,
      "Ġpattern": 5827,
      "ADE": 5828,
      "]])": 5829,
      "Ġclear": 5830,
      "ĠAuth": 5831,
      "Ġstorage": 5832,
      "Condition": 5833,
      "Admin": 5834,
      "Ã³n": 5835,
      "å¼": 5836,
      "alent": 5837,
      "Ġremote": 5838,
      "ĠĠĠĠĠĠĠĠĠĠĠĠĠĠĠĠĠĠĠĠĠĠĠĠĠĠĠĠĠĠĠ": 5839,
      "colatey": 5840,
      "EM": 5841,
      "Single": 5842,
      "xi": 5843,
      "Ġvert": 5844,
      "transaction": 5845,
      "bootstrap": 5846,
      "Amount": 5847,
      "Ġps": 5848,
      "Ġplay": 5849,
      "Ġsince": 5850,
      "editor": 5851,
      "============": 5852,
      "initial": 5853,
      "Close": 5854,
      "ĠDoc": 5855,
      "article": 5856,
      "ãĤ¢": 5857,
      "nolog": 5858,
      "ips": 5859,
      "`,`": 5860,
      "DV": 5861,
      "TIME": 5862,
      "Ġsample": 5863,
      "Program": 5864,
      "stylesheet": 5865,
      "TUR": 5866,
      "WA": 5867,
      "ned": 5868,
      "Ġpy": 5869,
      "upload": 5870,
      "Callback": 5871,
      "Success": 5872,
      "Ġqualified": 5873,
      "*(": 5874,
      "pdf": 5875,
      "Ġusage": 5876,
      "(<<": 5877,
      "arge": 5878,
      "covery": 5879,
      "uber": 5880,
      "izer": 5881,
      "ĠFALSE": 5882,
      "Begin": 5883,
      "Scope": 5884,
      "Ġpure": 5885,
      "Ġcontract": 5886,
      "ffff": 5887,
      "ĠStream": 5888,
      "Ġrole": 5889,
      ".$": 5890,
      "Ã¤": 5891,
      "Ġmp": 5892,
      "encoding": 5893,
      "ops": 5894,
      "ĠOper": 5895,
      "Ġinstead": 5896,
      "æĹ": 5897,
      "protected": 5898,
      "Home": 5899,
      "Ms": 5900,
      "cx": 5901,
      "ilog": 5902,
      "Ġpoints": 5903,
      "Limit": 5904,
      "ano": 5905,
      "Ġapk": 5906,
      "Ġweight": 5907,
      "olyline": 5908,
      "ĠView": 5909,
      "ĠApplications": 5910,
      "çĽ": 5911,
      "ung": 5912,
      "Ġprofile": 5913,
      "groups": 5914,
      "Ġvalidate": 5915,
      "ìĿ´": 5916,
      "ticket": 5917,
      "Engine": 5918,
      "BR": 5919,
      "Ġcpu": 5920,
      "Rece": 5921,
      "REG": 5922,
      "ĠCreated": 5923,
      "Auto": 5924,
      "tz": 5925,
      "procedure": 5926,
      "ashboard": 5927,
      "Ġwriter": 5928,
      "ertificate": 5929,
      "exist": 5930,
      "Click": 5931,
      "missing": 5932,
      "sage": 5933,
      "asure": 5934,
      "prod": 5935,
      "avor": 5936,
      "ĠtestOp": 5937,
      "Space": 5938,
      ",[": 5939,
      "hi": 5940,
      "isk": 5941,
      "props": 5942,
      "ĠRout": 5943,
      "interval": 5944,
      "Ġbot": 5945,
      "collect": 5946,
      "Ġinstant": 5947,
      "multi": 5948,
      "Ġdf": 5949,
      "area": 5950,
      "Ġoverrid": 5951,
      "Ġquoted": 5952,
      "quivalent": 5953,
      "ĠHREF": 5954,
      "times": 5955,
      "Ġcollect": 5956,
      "ĠColors": 5957,
      "Dim": 5958,
      "kit": 5959,
      "unsigned": 5960,
      "Ġscala": 5961,
      "media": 5962,
      "hook": 5963,
      "transition": 5964,
      "HTTP": 5965,
      "Ġcopies": 5966,
      "arb": 5967,
      "Ġway": 5968,
      "constant": 5969,
      "panded": 5970,
      "ĊĊĠĠĠĠĠĠĠĠĠĠĠĠĠĠĠ": 5971,
      "Ġexists": 5972,
      "gmii": 5973,
      "Ġhtml": 5974,
      "Ġsig": 5975,
      "updated": 5976,
      "ĠMet": 5977,
      "inspect": 5978,
      "apture": 5979,
      "ifiers": 5980,
      "Ġtrain": 5981,
      "è¡¨": 5982,
      "GM": 5983,
      "]::": 5984,
      "roy": 5985,
      "Ġ',": 5986,
      "čĊčĊĠĠĠ": 5987,
      "Ut": 5988,
      "registry": 5989,
      "Ġ\"*": 5990,
      "Std": 5991,
      "Ġmessages": 5992,
      "Section": 5993,
      "Ġevents": 5994,
      "++)": 5995,
      "TAIN": 5996,
      "ĠUpdate": 5997,
      "Boolean": 5998,
      "ĠPer": 5999,
      "Ġdescrib": 6000,
      "Compat": 6001,
      "Ġthrows": 6002,
      "ture": 6003,
      "ifies": 6004,
      "omatic": 6005,
      "ĠJava": 6006,
      "Ġoperation": 6007,
      "IndexPath": 6008,
      "UBLIC": 6009,
      "izes": 6010,
      "argo": 6011,
      "IALS": 6012,
      "uch": 6013,
      "¾ãģĻ": 6014,
      "Ġhigh": 6015,
      "Ġconstructor": 6016,
      "ocus": 6017,
      "als": 6018,
      "ILD": 6019,
      "ById": 6020,
      "Ġ60": 6021,
      "Ġandroidx": 6022,
      "AssemblyVersion": 6023,
      "Git": 6024,
      "fp": 6025,
      "||": 6026,
      "Ġauto": 6027,
      "ĠVER": 6028,
      "afety": 6029,
      "gruent": 6030,
      "æŃ": 6031,
      "čĊĠĠĠĠ": 6032,
      "Ġremain": 6033,
      "ĠTree": 6034,
      "ĠĠĠĠĠĠĠĠĠĠĠĠĠĠĠĠĠĠĠĠĠĠĠĠ": 6035,
      "SETN": 6036,
      "WORD": 6037,
      "Headers": 6038,
      "Rate": 6039,
      "ĠFloat": 6040,
      "Ġpresent": 6041,
      "ĠSy": 6042,
      "Ġcannot": 6043,
      "Ġscheme": 6044,
      "lookup": 6045,
      "Ip": 6046,
      "Ġrs": 6047,
      "\"].": 6048,
      "validation": 6049,
      "Ġattributes": 6050,
      "blob": 6051,
      "ĠNe": 6052,
      "Ġencode": 6053,
      "Acc": 6054,
      "gers": 6055,
      "depend": 6056,
      "oose": 6057,
      "ãĤ¤": 6058,
      "Align": 6059,
      "failed": 6060,
      "ĠFUNCTION": 6061,
      "Ġexternal": 6062,
      "ĠGO": 6063,
      "ĠGit": 6064,
      "ĊĠĠĠĠĠĠĠĠĠĠĠĠĠĠĠĠĠĠĠĠĠĠĠĠĠĠĠĠĠĠĠĠĠ": 6065,
      "mmu": 6066,
      "åį": 6067,
      "period": 6068,
      "UTE": 6069,
      "Ġalways": 6070,
      "disable": 6071,
      "Ġthrough": 6072,
      "CTRL": 6073,
      "Ġintended": 6074,
      "Ġdistribution": 6075,
      "others": 6076,
      "boolean": 6077,
      "Ġmany": 6078,
      "Static": 6079,
      "Ġupdated": 6080,
      "Ġ2020": 6081,
      "<!": 6082,
      "Ġmost": 6083,
      "CHE": 6084,
      "ILED": 6085,
      "OLD": 6086,
      "åľ¨": 6087,
      "FIG": 6088,
      "Ptr": 6089,
      "gov": 6090,
      "Column": 6091,
      "RG": 6092,
      "Runtime": 6093,
      "nth": 6094,
      "ĊĊĠĠĠĠĠĠĠĠĠ": 6095,
      "ĠĠĠĠĠĠĠĠĠĠĠĠĠĠĠĠĠĠĠĠĠĠĠĠĠĠ": 6096,
      "Ġ17": 6097,
      "Remove": 6098,
      "elements": 6099,
      "CA": 6100,
      "Stop": 6101,
      "\\/": 6102,
      "duration": 6103,
      "yy": 6104,
      "links": 6105,
      "releases": 6106,
      "ĠCommand": 6107,
      "ĠMYNAME": 6108,
      "Card": 6109,
      "WH": 6110,
      "Ġ``": 6111,
      "oblique": 6112,
      "Ġadditional": 6113,
      "atomic": 6114,
      "follow": 6115,
      "orp": 6116,
      "-----": 6117,
      "ison": 6118,
      "ulia": 6119,
      "chan": 6120,
      "NTY": 6121,
      "ĠDist": 6122,
      "ĠDES": 6123,
      "congruent": 6124,
      "ViewController": 6125,
      "Ġimplements": 6126,
      "Ġpermitted": 6127,
      "Async": 6128,
      "CALL": 6129,
      "SR": 6130,
      "side": 6131,
      "á»": 6132,
      "invalid": 6133,
      "dispatch": 6134,
      "ĠWARRANTY": 6135,
      "Ġpossible": 6136,
      "909": 6137,
      "xp": 6138,
      "seed": 6139,
      "Ġdynamic": 6140,
      "Ġmonth": 6141,
      "uest": 6142,
      ")));": 6143,
      "redit": 6144,
      "Println": 6145,
      "BC": 6146,
      "GINE": 6147,
      "mapping": 6148,
      "vue": 6149,
      "åŃ": 6150,
      "Ġsudo": 6151,
      "Ġresp": 6152,
      "Ġmcfg": 6153,
      "Ġaddresses": 6154,
      ")+": 6155,
      "Eval": 6156,
      "Ġ'../../": 6157,
      "rypto": 6158,
      "íķĺ": 6159,
      "Ġhelper": 6160,
      "TEXT": 6161,
      "uce": 6162,
      "Ġdeployment": 6163,
      "ainers": 6164,
      "ested": 6165,
      "Ġparser": 6166,
      "(_,_": 6167,
      "nginx": 6168,
      "des": 6169,
      "urity": 6170,
      "aves": 6171,
      "background": 6172,
      "netes": 6173,
      "ubernetes": 6174,
      "FI": 6175,
      "rpc": 6176,
      "sel": 6177,
      "pear": 6178,
      "Ġdebug": 6179,
      "è¦ģ": 6180,
      "dx": 6181,
      "plan": 6182,
      "STAT": 6183,
      "Tasks": 6184,
      "583": 6185,
      "second": 6186,
      "=\"${": 6187,
      "ffic": 6188,
      "ãģ§": 6189,
      "Decl": 6190,
      "tokens": 6191,
      "ggplot": 6192,
      "pin": 6193,
      "001": 6194,
      "Keys": 6195,
      "Colors": 6196,
      "jection": 6197,
      "embed": 6198,
      "ĠGraph": 6199,
      "Ġ*/;": 6200,
      "Ġactive": 6201,
      "Language": 6202,
      "anization": 6203,
      "ĠPre": 6204,
      "irc": 6205,
      "prox": 6206,
      "Ġ#(": 6207,
      "Ġrst": 6208,
      "sdk": 6209,
      "512": 6210,
      "AIL": 6211,
      "TF": 6212,
      "det": 6213,
      "Ġ(%": 6214,
      "Ġ$\"": 6215,
      "ĠFree": 6216,
      "LETE": 6217,
      "ifications": 6218,
      "YY": 6219,
      "dummy": 6220,
      "lit": 6221,
      "è§": 6222,
      "ĠMax": 6223,
      "ĠElement": 6224,
      "Ġaliase": 6225,
      "ĠTIME": 6226,
      "ĊĉĊ": 6227,
      "111": 6228,
      "ĠSTAT": 6229,
      "shell": 6230,
      "inclu": 6231,
      "rect": 6232,
      "Platform": 6233,
      ";;;;;;;;;;;;;;;;;;;;;;;;;;;;;;;;": 6234,
      "uy": 6235,
      "inate": 6236,
      "(){": 6237,
      "owner": 6238,
      "Throw": 6239,
      "incip": 6240,
      ".)": 6241,
      "Missing": 6242,
      "bucket": 6243,
      "Ġbattle": 6244,
      "Ġaddr": 6245,
      "compile": 6246,
      "MODE": 6247,
      "ARESETN": 6248,
      "Ġevalu": 6249,
      "Database": 6250,
      "WR": 6251,
      "Ġpointer": 6252,
      "Ġwithin": 6253,
      "quotemeta": 6254,
      "Save": 6255,
      "aes": 6256,
      "nn": 6257,
      "Ġsimple": 6258,
      "ĠMin": 6259,
      "Ġreader": 6260,
      "ĠDISCLAIMS": 6261,
      "Ne": 6262,
      "stmt": 6263,
      "Ġmissing": 6264,
      "Ġher": 6265,
      "fx": 6266,
      "Ġbuf": 6267,
      "(\"\\": 6268,
      "scm": 6269,
      "packages": 6270,
      "VECTOR": 6271,
      "ĠValid": 6272,
      "Ġmodels": 6273,
      "apped": 6274,
      "Ġ[];": 6275,
      "Ġadv": 6276,
      "ito": 6277,
      "assets": 6278,
      "tem": 6279,
      "ILL": 6280,
      "player": 6281,
      "ULTS": 6282,
      "=?": 6283,
      "BA": 6284,
      "Ġtimer": 6285,
      "POST": 6286,
      ".\\": 6287,
      "take": 6288,
      "geInsets": 6289,
      "Ġinvalid": 6290,
      "----------": 6291,
      "foot": 6292,
      "2014": 6293,
      "Ġperformance": 6294,
      "Ġagain": 6295,
      "Sort": 6296,
      "sta": 6297,
      "raft": 6298,
      "Ġlater": 6299,
      "datafield": 6300,
      "ĠHas": 6301,
      "ToString": 6302,
      "MEM": 6303,
      "Ġcalls": 6304,
      "MOB": 6305,
      "relation": 6306,
      "Sk": 6307,
      "]],": 6308,
      "iol": 6309,
      "Ġ'\\": 6310,
      "ĠJoin": 6311,
      "tau": 6312,
      "Te": 6313,
      "urpose": 6314,
      "Ġdie": 6315,
      "share": 6316,
      "ĠINFRINGEMENT": 6317,
      "Ġ2016": 6318,
      "Ġfront": 6319,
      "Ġwidget": 6320,
      "ialization": 6321,
      "OLDER": 6322,
      "Editor": 6323,
      "prot": 6324,
      "Ġjav": 6325,
      "complete": 6326,
      "curr": 6327,
      "AUT": 6328,
      "ÃĲ": 6329,
      "submit": 6330,
      "partition": 6331,
      "Html": 6332,
      "SM": 6333,
      "Ġpanel": 6334,
      "Master": 6335,
      "ied": 6336,
      "ming": 6337,
      "¥¼": 6338,
      "ĠCall": 6339,
      "RES": 6340,
      "LOAD": 6341,
      "Ġabs": 6342,
      "Ġsystems": 6343,
      "Ġincluded": 6344,
      "Ġ99": 6345,
      "prov": 6346,
      "ĠGET": 6347,
      "ARK": 6348,
      "Ġcases": 6349,
      "Ġbottom": 6350,
      "iment": 6351,
      "Impl": 6352,
      "slice": 6353,
      "alter": 6354,
      "abb": 6355,
      "Ġgeneric": 6356,
      "Ġusers": 6357,
      "Details": 6358,
      "Ġdomain": 6359,
      "ĠNAME": 6360,
      "Ġdesc": 6361,
      "Ġbelow": 6362,
      "ĠRef": 6363,
      "Ġverify": 6364,
      ")'": 6365,
      "writ": 6366,
      "Ġ------------------------------------------------": 6367,
      "publish": 6368,
      "Ġ2018": 6369,
      "FUN": 6370,
      "unique": 6371,
      "apis": 6372,
      "=\"@": 6373,
      "ISH": 6374,
      "ĠCOM": 6375,
      "blue": 6376,
      "Ġtransform": 6377,
      "RITE": 6378,
      "ç¤": 6379,
      "Ġ'../": 6380,
      "ĠBox": 6381,
      "rcx": 6382,
      "Framework": 6383,
      "Double": 6384,
      "Report": 6385,
      "Ġnumbers": 6386,
      "selected": 6387,
      "steps": 6388,
      "Fetch": 6389,
      "direction": 6390,
      "Ġ[(": 6391,
      "Schemas": 6392,
      "ĠPROVIDED": 6393,
      ")[": 6394,
      "Copy": 6395,
      "]=": 6396,
      "Ġpr": 6397,
      "orizont": 6398,
      "tre": 6399,
      "Ġí": 6400,
      "Ġfd": 6401,
      "istics": 6402,
      "ĠEVENT": 6403,
      "extract": 6404,
      "Ġmon": 6405,
      "Ġmodified": 6406,
      "ari": 6407,
      "Ġboth": 6408,
      "ä¸Ń": 6409,
      "Ġdistance": 6410,
      "Ġstrict": 6411,
      "ĠException": 6412,
      "Ġrot": 6413,
      "correlation": 6414,
      "javascript": 6415,
      "country": 6416,
      "ĠMock": 6417,
      "Ġcommit": 6418,
      "ĠShow": 6419,
      "When": 6420,
      "ordinates": 6421,
      "ster": 6422,
      "Ġche": 6423,
      "Ġwhether": 6424,
      "mouse": 6425,
      "COMM": 6426,
      "mbed": 6427,
      "ilarity": 6428,
      "secret": 6429,
      "Ġcard": 6430,
      "hyper": 6431,
      "execute": 6432,
      "Ġfixed": 6433,
      "requency": 6434,
      "orizontal": 6435,
      "Normal": 6436,
      "Pos": 6437,
      "Zo": 6438,
      "aci": 6439,
      "ĠDB": 6440,
      "Ġequ": 6441,
      "ĠURI": 6442,
      "lev": 6443,
      "Ġkw": 6444,
      "CLI": 6445,
      "TRIB": 6446,
      "FLAG": 6447,
      "bits": 6448,
      "fast": 6449,
      "ĠĊĠĠĠĠĠĠĠĠĠĠĠ": 6450,
      "ropy": 6451,
      "peer": 6452,
      "Ġsetting": 6453,
      "Ġcompute": 6454,
      "compare": 6455,
      "CLK": 6456,
      "console": 6457,
      "ãģĦ": 6458,
      "Ġsync": 6459,
      "Aut": 6460,
      "Me": 6461,
      "dn": 6462,
      "---------": 6463,
      "kw": 6464,
      "Ġcr": 6465,
      "lier": 6466,
      "Ġ23": 6467,
      "astDiff": 6468,
      "resources": 6469,
      "ersistent": 6470,
      "Iterator": 6471,
      "ters": 6472,
      "uffix": 6473,
      "effect": 6474,
      "windows": 6475,
      "čĊĉĉ": 6476,
      "Ġbig": 6477,
      "Ġ202": 6478,
      "Ġextra": 6479,
      "Ġalpha": 6480,
      "Enum": 6481,
      "Ġlead": 6482,
      "****************************************************************************": 6483,
      "extensions": 6484,
      "Fragment": 6485,
      "MAT": 6486,
      "lap": 6487,
      "Ġentries": 6488,
      "=\\\"": 6489,
      "bench": 6490,
      "will": 6491,
      "Ã¶": 6492,
      "phone": 6493,
      "ç¤º": 6494,
      "sudo": 6495,
      "å¯": 6496,
      "ĠQuery": 6497,
      "Forms": 6498,
      "inu": 6499,
      "ula": 6500,
      "Ġep": 6501,
      "Console": 6502,
      "Ġzone": 6503,
      "Ġdivision": 6504,
      "Ge": 6505,
      "ks": 6506,
      "vs": 6507,
      "Ðº": 6508,
      "Ġbash": 6509,
      "profileDiff": 6510,
      "ĠAssert": 6511,
      "PARAMETER": 6512,
      "reach": 6513,
      "Ġcat": 6514,
      "Ġazure": 6515,
      "iling": 6516,
      "REAM": 6517,
      "ĠĠĠĠĠĠĠĠĠĠĠĠĠĠĠĠĠĠĠĠĠĠĠĠĠĠĠĠĠĠĠĠĠ": 6518,
      "INTEGER": 6519,
      "LS": 6520,
      "fits": 6521,
      "spl": 6522,
      "Ġthird": 6523,
      "Ġattr": 6524,
      "POINT": 6525,
      "TDE": 6526,
      "categories": 6527,
      "Ġ255": 6528,
      "paths": 6529,
      "ĠUSAGE": 6530,
      "Material": 6531,
      "ji": 6532,
      "regex": 6533,
      "Ġscore": 6534,
      "cha": 6535,
      "front": 6536,
      "ĠVerilog": 6537,
      "*>": 6538,
      "Non": 6539,
      "factor": 6540,
      "nex": 6541,
      "voc": 6542,
      "ĊĉĠĠĠĠĠ": 6543,
      "ĊĠĠĠĠĠĠĠĠĠĠĠĠĠĠĠĠĠĠĠĠĠĠĠĠĠĠĠĠĠĠ": 6544,
      "Ġspecify": 6545,
      "ĠContainer": 6546,
      "ĠCustomer": 6547,
      "ĠDAMAGES": 6548,
      "#\"": 6549,
      "FMT": 6550,
      "dates": 6551,
      "è¨": 6552,
      "Ġ(\\": 6553,
      "Ġpriv": 6554,
      "Ġremov": 6555,
      "poch": 6556,
      "urrency": 6557,
      "ĠTHEN": 6558,
      "Bool": 6559,
      "BACK": 6560,
      "_;": 6561,
      "shop": 6562,
      "sym": 6563,
      "?\"": 6564,
      "Cursor": 6565,
      "va": 6566,
      "Ġ----------------------------------------------------------------": 6567,
      "found": 6568,
      "weet": 6569,
      "marks": 6570,
      "Look": 6571,
      "cert": 6572,
      "gor": 6573,
      "high": 6574,
      "lea": 6575,
      "ands": 6576,
      "verify": 6577,
      "derive": 6578,
      "occa": 6579,
      "Ġ40": 6580,
      "constants": 6581,
      "ga": 6582,
      "sequence": 6583,
      "chr": 6584,
      "ĠJson": 6585,
      "Vari": 6586,
      "Ġforeach": 6587,
      ">\"]": 6588,
      "remote": 6589,
      "olver": 6590,
      "ĠMake": 6591,
      "ENCE": 6592,
      "Exit": 6593,
      "Ġidx": 6594,
      "InstanceOf": 6595,
      "ni": 6596,
      "ĠCPU": 6597,
      "ĠVec": 6598,
      "angular": 6599,
      "ViewModel": 6600,
      "scheme": 6601,
      "Ġselected": 6602,
      "ICAL": 6603,
      "PH": 6604,
      "Ġ(@": 6605,
      "Ġintern": 6606,
      "Ġstage": 6607,
      "ĠPost": 6608,
      "Ġblack": 6609,
      ":$": 6610,
      "Pred": 6611,
      "lg": 6612,
      "ĠĊĠĠĠĠĠ": 6613,
      "Ġdword": 6614,
      "great": 6615,
      "Ġmodifier": 6616,
      "Origin": 6617,
      "Bound": 6618,
      "Ġ\"../../": 6619,
      "STREAM": 6620,
      "ĠRevision": 6621,
      "choice": 6622,
      "Help": 6623,
      "Pair": 6624,
      "Ġonce": 6625,
      "Ġscreen": 6626,
      "Dest": 6627,
      "cst": 6628,
      "Ġiss": 6629,
      "Ġattribute": 6630,
      "STRB": 6631,
      "Rdp": 6632,
      "trim": 6633,
      "}]": 6634,
      "Ġhead": 6635,
      "ĠCut": 6636,
      "uspend": 6637,
      "note": 6638,
      "cape": 6639,
      "Ġinserted": 6640,
      "nost": 6641,
      "lies": 6642,
      "=\"$": 6643,
      "Export": 6644,
      "Ġtypeof": 6645,
      "rieve": 6646,
      "ĠWhen": 6647,
      "ĠAbstract": 6648,
      "uplicate": 6649,
      "RdpClient": 6650,
      "isc": 6651,
      "confluent": 6652,
      "Ġgl": 6653,
      "Ġhad": 6654,
      "userclk": 6655,
      "Place": 6656,
      "ĠDisplay": 6657,
      "alpine": 6658,
      "Ġ}.": 6659,
      "Ġparty": 6660,
      "centage": 6661,
      "inher": 6662,
      "abstract": 6663,
      "Encode": 6664,
      "ASK": 6665,
      "Ġplaceholder": 6666,
      "ĠAPPLICATION": 6667,
      "ëĬĶ": 6668,
      "developer": 6669,
      "Ġfolder": 6670,
      "Ġsn": 6671,
      "ĠCopy": 6672,
      "ression": 6673,
      "ĠStObject": 6674,
      "VALUE": 6675,
      "\\\\\\": 6676,
      "stan": 6677,
      "Ġcur": 6678,
      "ĠĠĠĠĠĠĠĠĠĠĠĠĠĠĠĠĠĠĠĠĠĠĠĠĠĠĠĠ": 6679,
      "toggle": 6680,
      "backend": 6681,
      "TRACT": 6682,
      ":'": 6683,
      "guard": 6684,
      "peat": 6685,
      "Ġlife": 6686,
      "Ġrule": 6687,
      "prepare": 6688,
      "Ġalloc": 6689,
      "Vs": 6690,
      "ĠSimple": 6691,
      "Ġ123": 6692,
      "ĠOptions": 6693,
      "ĠLIABILITY": 6694,
      "Category": 6695,
      "}'": 6696,
      "ubble": 6697,
      "Ġ42": 6698,
      "STRING": 6699,
      "Ġsite": 6700,
      "Ġmath": 6701,
      "like": 6702,
      "clus": 6703,
      "serde": 6704,
      "Ġ`(": 6705,
      "Ġwritten": 6706,
      "Super": 6707,
      "æŀ": 6708,
      "mploy": 6709,
      "pet": 6710,
      "Ġmount": 6711,
      "provider": 6712,
      "Ġstrings": 6713,
      "Binary": 6714,
      "squ": 6715,
      "Ġwarning": 6716,
      "ĠMo": 6717,
      "chool": 6718,
      "disabled": 6719,
      "Events": 6720,
      "CRIPTION": 6721,
      "/)": 6722,
      "Find": 6723,
      "`))": 6724,
      "gments": 6725,
      "attempt": 6726,
      "ĠWOR": 6727,
      "ĠHOLDER": 6728,
      "venue": 6729,
      "including": 6730,
      "Tags": 6731,
      "}).": 6732,
      "IFICATION": 6733,
      "graphics": 6734,
      "']);": 6735,
      "lots": 6736,
      "ĠCG": 6737,
      "Ġ!.": 6738,
      "']['": 6739,
      "swap": 6740,
      "Ġactiv": 6741,
      "lipse": 6742,
      "DAT": 6743,
      "Resources": 6744,
      "*.": 6745,
      "yl": 6746,
      "ending": 6747,
      "]):": 6748,
      "Ġsets": 6749,
      "Ġmutable": 6750,
      "aid": 6751,
      "samp": 6752,
      "Ã§": 6753,
      "chor": 6754,
      "ĠMan": 6755,
      "Ġdesigned": 6756,
      "Ġextent": 6757,
      "Ġparenthe": 6758,
      "AILABLE": 6759,
      "After": 6760,
      "Bot": 6761,
      "literal": 6762,
      "ĊĠĠĠĠĠĠĠĠĠĠĠĠĠĠĠĠĠĠĠĠĠĠĠĠĠĠĠĠĠĠĠĠĠĠĠĠĠĠĠ": 6763,
      "Ġcharacters": 6764,
      "Allow": 6765,
      "operator": 6766,
      "unity": 6767,
      "lict": 6768,
      "ĠRemove": 6769,
      "Ġassume": 6770,
      "ini": 6771,
      "atable": 6772,
      "//-----------": 6773,
      "Ġvec": 6774,
      "await": 6775,
      "Ġshort": 6776,
      "ĠSection": 6777,
      "ACTER": 6778,
      "Ġbin": 6779,
      "Ġrout": 6780,
      "cipe": 6781,
      "DX": 6782,
      "mart": 6783,
      "Ġ'#": 6784,
      "ĠAtt": 6785,
      "RECORD": 6786,
      "Ġ2017": 6787,
      "voice": 6788,
      "Pri": 6789,
      "writer": 6790,
      "Ġtau": 6791,
      "))]": 6792,
      "ĠConvert": 6793,
      "Shared": 6794,
      "Ġflags": 6795,
      "Clk": 6796,
      "Ġcontaining": 6797,
      "ÑĮ": 6798,
      "ìļ": 6799,
      "coord": 6800,
      "Ġprotocol": 6801,
      "Second": 6802,
      "transfer": 6803,
      "Ġsmall": 6804,
      "bor": 6805,
      "()}": 6806,
      "ACE": 6807,
      "Ġgroups": 6808,
      "Ġaliased": 6809,
      "/${": 6810,
      "600": 6811,
      "mkdir": 6812,
      "sch": 6813,
      "expr": 6814,
      "Ġtimes": 6815,
      "Ġ\"$(": 6816,
      "7775": 6817,
      "STORAGE": 6818,
      "Ã«": 6819,
      "Ġfac": 6820,
      "ĠNote": 6821,
      "probe": 6822,
      "EEE": 6823,
      "Ġpragma": 6824,
      "asInstanceOf": 6825,
      "Ġvtk": 6826,
      "Cluster": 6827,
      "%%%%%%%%": 6828,
      "miss": 6829,
      "rdi": 6830,
      "rating": 6831,
      "Ġ]]": 6832,
      "HTML": 6833,
      "TURN": 6834,
      "mix": 6835,
      "tb": 6836,
      "Reason": 6837,
      "ĠHel": 6838,
      "eth": 6839,
      "noDB": 6840,
      "Ġ---//": 6841,
      "Ġoverriding": 6842,
      "Like": 6843,
      "ĠPart": 6844,
      "Sequence": 6845,
      "Shift": 6846,
      "outputs": 6847,
      "7601": 6848,
      "Loader": 6849,
      "Ġrows": 6850,
      "Raw": 6851,
      "gap": 6852,
      "lb": 6853,
      "alf": 6854,
      "ĠINTEGER": 6855,
      "åĢ": 6856,
      "ĠStore": 6857,
      "Ġ@{": 6858,
      "Ġrules": 6859,
      "shal": 6860,
      "parator": 6861,
      "2016": 6862,
      "swift": 6863,
      "prise": 6864,
      "Area": 6865,
      "9097601": 6866,
      "5837775": 6867,
      "909760197": 6868,
      "5837775909760197": 6869,
      "beta": 6870,
      "áº": 6871,
      "emon": 6872,
      "ĠHe": 6873,
      "ĠCONST": 6874,
      "ĠTests": 6875,
      "Ġbackground": 6876,
      "Ġneeds": 6877,
      "ĠSHALL": 6878,
      "Fields": 6879,
      "Ġprecision": 6880,
      "TRIBUT": 6881,
      "CAL": 6882,
      "you": 6883,
      "Ġcrate": 6884,
      "ĠAnd": 6885,
      "quir": 6886,
      "ĠFuture": 6887,
      "logging": 6888,
      "istributions": 6889,
      "bx": 6890,
      "ough": 6891,
      "sleep": 6892,
      "virtual": 6893,
      "SYS": 6894,
      "rp": 6895,
      "watch": 6896,
      "ĠNOTICE": 6897,
      "ĠReser": 6898,
      "Ġlabels": 6899,
      "reshold": 6900,
      "æĪĲ": 6901,
      "SU": 6902,
      "ĠCRP": 6903,
      "Ġguard": 6904,
      "AAAA": 6905,
      "?])": 6906,
      "LINE": 6907,
      "OM": 6908,
      "Sn": 6909,
      "Ã¼": 6910,
      "čĊĠĠ": 6911,
      "ivid": 6912,
      "ĠOp": 6913,
      "Ġdownload": 6914,
      "ĠLocal": 6915,
      "Day": 6916,
      "Īëĭ¤": 6917,
      "etter": 6918,
      "DIF": 6919,
      "Found": 6920,
      "ĠTEST": 6921,
      "STD": 6922,
      "Allocator": 6923,
      "Ġoperations": 6924,
      "ĠFormat": 6925,
      "Try": 6926,
      "acon": 6927,
      "Ġ'{": 6928,
      "amal": 6929,
      "ems": 6930,
      "ERO": 6931,
      "Ġalert": 6932,
      "Force": 6933,
      "CESS": 6934,
      "WN": 6935,
      "mic": 6936,
      "Ġmock": 6937,
      "=\"$(": 6938,
      "Ġdefine": 6939,
      "Services": 6940,
      "($\"": 6941,
      "relative": 6942,
      "ĠEnv": 6943,
      "Ġvisit": 6944,
      "iation": 6945,
      "Ġnodes": 6946,
      "ĠLIABLE": 6947,
      "cursive": 6948,
      "Ġseverity": 6949,
      "Has": 6950,
      "delay": 6951,
      "ĠSche": 6952,
      "ĠTarget": 6953,
      "Ġissu": 6954,
      "ĠField": 6955,
      "Ġprobe": 6956,
      "Cmdlet": 6957,
      "Score": 6958,
      "Ð´": 6959,
      "ander": 6960,
      "Ġstandard": 6961,
      "Registry": 6962,
      "datetime": 6963,
      "190": 6964,
      "SIZE": 6965,
      "*-": 6966,
      "bp": 6967,
      "Ġram": 6968,
      "erlang": 6969,
      "NA": 6970,
      "flex": 6971,
      "Ġ\"~": 6972,
      "Ġfmt": 6973,
      "exn": 6974,
      "ĠModel": 6975,
      "Ġinstantiated": 6976,
      "ICS": 6977,
      "Ġhex": 6978,
      "attributes": 6979,
      "Decimal": 6980,
      "mgmt": 6981,
      ")',": 6982,
      "demo": 6983,
      "Ġsummary": 6984,
      "ĠPGM": 6985,
      "INC": 6986,
      "ĠHERE": 6987,
      "Ġchain": 6988,
      "uffle": 6989,
      "Interval": 6990,
      "legal": 6991,
      "Effect": 6992,
      "Tri": 6993,
      "ä¿": 6994,
      "æį": 6995,
      "axon": 6996,
      "ĠBig": 6997,
      "ached": 6998,
      "checker": 6999,
      "changed": 7000,
      "CPU": 7001,
      "ĠENGINE": 7002,
      "bg": 7003,
      "ght": 7004,
      "ĠItem": 7005,
      "Units": 7006,
      "ĠSelect": 7007,
      "Ġparentheses": 7008,
      "=%": 7009,
      "hore": 7010,
      "wer": 7011,
      "Ġden": 7012,
      "Ġdesign": 7013,
      "Ġ___": 7014,
      "Ġinstalled": 7015,
      "URI": 7016,
      "methods": 7017,
      "\"()": 7018,
      "ior": 7019,
      "soc": 7020,
      "derr": 7021,
      "projects": 7022,
      "Dictionary": 7023,
      "xs": 7024,
      "------": 7025,
      "ĠCore": 7026,
      "Ġdes": 7027,
      "ĠGoogle": 7028,
      "STATE": 7029,
      "OFFSET": 7030,
      "(!": 7031,
      "ĠIEEE": 7032,
      "concurrent": 7033,
      "INST": 7034,
      "START": 7035,
      "Ġatom": 7036,
      "Ġsubst": 7037,
      "čĊčĊĠĠĠĠĠĠĠ": 7038,
      "weights": 7039,
      "Delay": 7040,
      "CES": 7041,
      "_)": 7042,
      "éĹ": 7043,
      "detect": 7044,
      "edition": 7045,
      "ä¸ª": 7046,
      "ĠIDENT": 7047,
      "Ġputs": 7048,
      "Distinct": 7049,
      "footer": 7050,
      ">/": 7051,
      "rw": 7052,
      "|.": 7053,
      "Ġmeans": 7054,
      "########################": 7055,
      "ĠSeg": 7056,
      "Ġsole": 7057,
      "Assign": 7058,
      "Email": 7059,
      "health": 7060,
      "Ġwell": 7061,
      "Ġmk": 7062,
      "dump": 7063,
      "price": 7064,
      "ĠÂ": 7065,
      "Ġtrigger": 7066,
      "Ids": 7067,
      "generic": 7068,
      "Ġpackages": 7069,
      "world": 7070,
      "}:": 7071,
      "ë¥¼": 7072,
      "integr": 7073,
      "Remote": 7074,
      "classes": 7075,
      "ialized": 7076,
      "Chain": 7077,
      "swer": 7078,
      "Alert": 7079,
      "ĠâĪ": 7080,
      "Front": 7081,
      "Gui": 7082,
      "gy": 7083,
      "pages": 7084,
      "Ġic": 7085,
      "(\"$": 7086,
      "prolog": 7087,
      "Ġ!==": 7088,
      "ĠSTR": 7089,
      "<:": 7090,
      "mor": 7091,
      "Ġpower": 7092,
      "diag": 7093,
      "Scroll": 7094,
      "ĠReserved": 7095,
      ",(": 7096,
      "Global": 7097,
      "Span": 7098,
      "cy": 7099,
      "Ġclock": 7100,
      "Ġscope": 7101,
      "Ġwhite": 7102,
      "čĊčĊ": 7103,
      "atten": 7104,
      "------------------------------------------------------------------------------": 7105,
      "Ġprovides": 7106,
      "CONST": 7107,
      "BI": 7108,
      "tile": 7109,
      "Ġside": 7110,
      "Ġproces": 7111,
      "ĠJust": 7112,
      "IMG": 7113,
      "ï¼ļ": 7114,
      "è¡Į": 7115,
      ",:": 7116,
      "PUBLIC": 7117,
      "tc": 7118,
      "Ġ\")": 7119,
      "Ġpen": 7120,
      "Ġng": 7121,
      "Ġdeparture": 7122,
      "synchron": 7123,
      "that": 7124,
      "ROUT": 7125,
      "IMES": 7126,
      "Ġ[{:": 7127,
      "LEN": 7128,
      "ä¼": 7129,
      "ili": 7130,
      "rain": 7131,
      "allen": 7132,
      "Namespace": 7133,
      "configure": 7134,
      "rits": 7135,
      "Ġ80": 7136,
      "ä¸į": 7137,
      "manual": 7138,
      "IRECT": 7139,
      "Confirm": 7140,
      "Failure": 7141,
      "eed": 7142,
      "Ġarchive": 7143,
      "ilent": 7144,
      "Ġtraverse": 7145,
      "åħ¥": 7146,
      "IQUE": 7147,
      "ving": 7148,
      "æĶ": 7149,
      "Ġty": 7150,
      "Ġ'-": 7151,
      "Ġ_}": 7152,
      "('$": 7153,
      "udent": 7154,
      "Ġobjects": 7155,
      "ATERIALS": 7156,
      "BASE": 7157,
      "identity": 7158,
      "Ġdirection": 7159,
      "ĠIND": 7160,
      "ama": 7161,
      "amera": 7162,
      "listen": 7163,
      "codes": 7164,
      "gisters": 7165,
      "weblog": 7166,
      "Bin": 7167,
      "ev": 7168,
      "oracle": 7169,
      "security": 7170,
      "Ġpgp": 7171,
      "Ġchmod": 7172,
      "reduce": 7173,
      "Alignment": 7174,
      "Kernel": 7175,
      "isode": 7176,
      "######": 7177,
      "Ġbeing": 7178,
      "Encoding": 7179,
      "CRTL": 7180,
      "rdata": 7181,
      "snapshot": 7182,
      "Ð²": 7183,
      "ubuntu": 7184,
      "INK": 7185,
      "eeded": 7186,
      "ĠServices": 7187,
      ")->": 7188,
      "rot": 7189,
      "icator": 7190,
      "Ġpol": 7191,
      "Ġday": 7192,
      "Ġyield": 7193,
      "Ġcomment": 7194,
      "external": 7195,
      "Ġwere": 7196,
      "Ġmachine": 7197,
      "ĠOS": 7198,
      "ĉĉĉĉĉĉĉĉĉ": 7199,
      "unsafe": 7200,
      "ulate": 7201,
      "typeof": 7202,
      "Ġtesting": 7203,
      "Unknown": 7204,
      "Ġusername": 7205,
      "(/": 7206,
      "OB": 7207,
      "Src": 7208,
      "čĊĠĠĠĠĠĠ": 7209,
      "Ġpod": 7210,
      "ĠSu": 7211,
      "actual": 7212,
      "Ġannot": 7213,
      "fft": 7214,
      "080": 7215,
      "Ġprintln": 7216,
      "Generator": 7217,
      ".__": 7218,
      "Clock": 7219,
      "mult": 7220,
      "ony": 7221,
      "stroke": 7222,
      "uman": 7223,
      "::::": 7224,
      "nthe": 7225,
      "permission": 7226,
      "ĠProduct": 7227,
      "Ġrequires": 7228,
      "Ġ2021": 7229,
      "Sample": 7230,
      "TY": 7231,
      "dee": 7232,
      "Enabled": 7233,
      "Ġ76": 7234,
      "Ġrequests": 7235,
      "ĠLogger": 7236,
      ":</": 7237,
      "julia": 7238,
      "å±": 7239,
      "stage": 7240,
      "edu": 7241,
      "ĠCALL": 7242,
      "aving": 7243,
      "ãģ¨": 7244,
      "ĠResource": 7245,
      "ĠARG": 7246,
      "Ġmouse": 7247,
      "Emit": 7248,
      "Zone": 7249,
      "ĊĊĠĠĠĠĠĠĠĠĠĠ": 7250,
      "products": 7251,
      "Price": 7252,
      "deli": 7253,
      "Ġcross": 7254,
      "ä¸Ĭ": 7255,
      "filters": 7256,
      "reachable": 7257,
      "La": 7258,
      "Literal": 7259,
      "eep": 7260,
      "Ġ))": 7261,
      "etary": 7262,
      "tection": 7263,
      "ISRC": 7264,
      "Ġdistribute": 7265,
      "MOV": 7266,
      "Before": 7267,
      "Notification": 7268,
      "Ġadmin": 7269,
      "Ġchanged": 7270,
      "Ġallows": 7271,
      "Owner": 7272,
      "'re": 7273,
      "(__": 7274,
      "Ġquestion": 7275,
      "cores": 7276,
      "records": 7277,
      "Ġdatetime": 7278,
      "IZ": 7279,
      "Virtual": 7280,
      "big": 7281,
      "sources": 7282,
      "Ġ{@": 7283,
      "pell": 7284,
      "Ġlang": 7285,
      "named": 7286,
      "ĠRight": 7287,
      "(['": 7288,
      "Ġmethods": 7289,
      "Ġoperator": 7290,
      "AWS": 7291,
      "gpio": 7292,
      "-_-_-_-_-_-_-_-_": 7293,
      "Accept": 7294,
      "Summary": 7295,
      "sif": 7296,
      "ĠIMs": 7297,
      "workflow": 7298,
      "ANCE": 7299,
      "Ġworking": 7300,
      "Download": 7301,
      "variant": 7302,
      "ĠIMsRdpClient": 7303,
      ")%": 7304,
      "Bundle": 7305,
      "MC": 7306,
      "Wait": 7307,
      "ķãĤ": 7308,
      "ana": 7309,
      "mes": 7310,
      "Ġpe": 7311,
      "progress": 7312,
      "Ġprintf": 7313,
      "ĠAVAILABLE": 7314,
      "Weight": 7315,
      "Ġbranch": 7316,
      "sem": 7317,
      "route": 7318,
      "Ġdelay": 7319,
      "ĠContent": 7320,
      "åĨ": 7321,
      "esome": 7322,
      "Ġwin": 7323,
      "Ġnote": 7324,
      "views": 7325,
      "ETHER": 7326,
      "Ġembed": 7327,
      "Ġreceive": 7328,
      "allowed": 7329,
      "åĽ¾": 7330,
      "ĠWORK": 7331,
      "BEGIN": 7332,
      "tex": 7333,
      "clone": 7334,
      "definition": 7335,
      "ĠGen": 7336,
      "modal": 7337,
      "FORMAT": 7338,
      "Ġpairs": 7339,
      "NV": 7340,
      "PK": 7341,
      "Ñı": 7342,
      "ë¡": 7343,
      "chunk": 7344,
      "__(": 7345,
      "Union": 7346,
      "DebugStub": 7347,
      "ĠUSING": 7348,
      "Maybe": 7349,
      "RW": 7350,
      "_.": 7351,
      "cnt": 7352,
      "Ġwarnings": 7353,
      "Ġruntime": 7354,
      "__,": 7355,
      "...\"": 7356,
      "sqlserver": 7357,
      "haviour": 7358,
      "ĠMonad": 7359,
      "abbage": 7360,
      "GRO": 7361,
      "Ġ(**": 7362,
      "IDTH": 7363,
      "ventory": 7364,
      "straint": 7365,
      "Adapter": 7366,
      "Authorization": 7367,
      "quiring": 7368,
      "Tile": 7369,
      "(\"#": 7370,
      "aclk": 7371,
      "produce": 7372,
      "Ġrising": 7373,
      "news": 7374,
      "See": 7375,
      "CMD": 7376,
      "bd": 7377,
      "jup": 7378,
      "simple": 7379,
      "Ġtab": 7380,
      "Ġcenter": 7381,
      "Ġplayer": 7382,
      "Ġaes": 7383,
      "Ġsecret": 7384,
      "107": 7385,
      "mbers": 7386,
      "matches": 7387,
      "ĠChar": 7388,
      "macros": 7389,
      "corout": 7390,
      ">[": 7391,
      "Fore": 7392,
      "Java": 7393,
      "[$": 7394,
      "entries": 7395,
      "ĠMATERIALS": 7396,
      "Ġeffect": 7397,
      "Annot": 7398,
      "IBS": 7399,
      "Dispatch": 7400,
      "Ġelsif": 7401,
      "BUG": 7402,
      "raries": 7403,
      "odo": 7404,
      "ä¸ļ": 7405,
      "Ġprevious": 7406,
      "cancel": 7407,
      "Tracker": 7408,
      "Lexer": 7409,
      "driver": 7410,
      "mv": 7411,
      "æł": 7412,
      "éĻ": 7413,
      "Ġ[`": 7414,
      "ĠACTION": 7415,
      "ãģª": 7416,
      "expand": 7417,
      "NUMBER": 7418,
      "nr": 7419,
      "exception": 7420,
      "Ġforms": 7421,
      "Security": 7422,
      "Ġnav": 7423,
      "ĠAg": 7424,
      "uss": 7425,
      "Servlet": 7426,
      "Animation": 7427,
      "Ġworker": 7428,
      "icture": 7429,
      "igrations": 7430,
      "ĠCHARSET": 7431,
      ".\")": 7432,
      ">()": 7433,
      "Copyright": 7434,
      "week": 7435,
      "Ġè": 7436,
      "Ġ@@": 7437,
      "Ġrand": 7438,
      "Ġseries": 7439,
      "started": 7440,
      "echnolog": 7441,
      "800": 7442,
      "Occ": 7443,
      "SV": 7444,
      "Ġcabbage": 7445,
      "Invoke": 7446,
      "ĠOther": 7447,
      "ãĥ§": 7448,
      "flux": 7449,
      "receive": 7450,
      ")')": 7451,
      "Bad": 7452,
      "aff": 7453,
      "čĊĠĠĠĠĠĠĠĠĠĠĠĠĠĠĠĠĠĠĠ": 7454,
      "analyzer": 7455,
      "Ġcc": 7456,
      "exclude": 7457,
      "ĠPermission": 7458,
      "ĠNatural": 7459,
      "ĠMADE": 7460,
      "ONENT": 7461,
      "Art": 7462,
      "Chart": 7463,
      "}}</": 7464,
      "-${": 7465,
      "eper": 7466,
      "å¾": 7467,
      "isEmpty": 7468,
      "Ġyarn": 7469,
      "ICT": 7470,
      "precated": 7471,
      "policy": 7472,
      "Ġcategory": 7473,
      "ĠTIMES": 7474,
      "ĠCONTRACT": 7475,
      "ìĦ": 7476,
      "ĠĠĠĠĊĠĠĠ": 7477,
      "icles": 7478,
      "ĠSign": 7479,
      "Ġ@\"": 7480,
      "ITUDE": 7481,
      "timezone": 7482,
      "libs": 7483,
      "ĠTheme": 7484,
      "ĠActivity": 7485,
      "ãĥ§ãĥ³": 7486,
      "payment": 7487,
      "Ġ\"\")": 7488,
      "ĠCRIT": 7489,
      "ĠWith": 7490,
      "Ġliable": 7491,
      "(|": 7492,
      ";\">": 7493,
      "MASK": 7494,
      "bi": 7495,
      "oe": 7496,
      "mesh": 7497,
      "Profit": 7498,
      "strings": 7499,
      "LOW": 7500,
      "Trace": 7501,
      "Desc": 7502,
      "Ġchildren": 7503,
      "GUID": 7504,
      "STATUS": 7505,
      "sites": 7506,
      "rev": 7507,
      "ĠHO": 7508,
      "125": 7509,
      "ĠExcept": 7510,
      "(_,": 7511,
      "uffered": 7512,
      "Ġimplemented": 7513,
      "Transform": 7514,
      "Embed": 7515,
      "Ignore": 7516,
      "Ġ=~": 7517,
      "Ġ{.": 7518,
      "ĠWHETHER": 7519,
      "Ġreceived": 7520,
      "AMPLE": 7521,
      "jac": 7522,
      "invoke": 7523,
      "atis": 7524,
      "icates": 7525,
      "ĠTORT": 7526,
      "InnoDB": 7527,
      "pointer": 7528,
      "mutable": 7529,
      "âĢĻ": 7530,
      "FIX": 7531,
      "how": 7532,
      "vend": 7533,
      "Ġnp": 7534,
      "added": 7535,
      "Ġ-*-": 7536,
      "ulk": 7537,
      "ISING": 7538,
      "Errors": 7539,
      "ĠKeyword": 7540,
      "Ġschema": 7541,
      "Ġcorresponding": 7542,
      "Ġtrie": 7543,
      "utdown": 7544,
      "ĠCLAIM": 7545,
      "defmethod": 7546,
      "ires": 7547,
      "Ġho": 7548,
      "Ġprogress": 7549,
      "Ġknow": 7550,
      "()),": 7551,
      "Ġderiving": 7552,
      "Bucket": 7553,
      "mong": 7554,
      "Ġvl": 7555,
      "ĠRights": 7556,
      "HashMap": 7557,
      "Ġlayer": 7558,
      "Ġincident": 7559,
      "Ġissued": 7560,
      "lu": 7561,
      "ĦĿ": 7562,
      "rive": 7563,
      "ĠLink": 7564,
      "agraph": 7565,
      "questions": 7566,
      "ĠRegister": 7567,
      "Ġintel": 7568,
      "TestCase": 7569,
      "Ġ}}</": 7570,
      "similarity": 7571,
      "gorith": 7572,
      "Append": 7573,
      "Computer": 7574,
      "ĠConsole": 7575,
      "ĠIMPLEMENT": 7576,
      "Ġpredicate": 7577,
      "ĠARISING": 7578,
      "ìĹĲ": 7579,
      "ĠHEREBY": 7580,
      "ĠIMPLEMENTATION": 7581,
      "Len": 7582,
      "tcp": 7583,
      "Ġ.*": 7584,
      "Ġconfigure": 7585,
      "ĠCRITICAL": 7586,
      "\"\\": 7587,
      "iny": 7588,
      "Ġsup": 7589,
      "Ġmight": 7590,
      "illa": 7591,
      "schemas": 7592,
      "EndOffset": 7593,
      "allenge": 7594,
      "babel": 7595,
      "oy": 7596,
      "Ġdot": 7597,
      "ĠTop": 7598,
      "izations": 7599,
      "ĠRO": 7600,
      "perm": 7601,
      "Ġenabled": 7602,
      "LOCK": 7603,
      "ohn": 7604,
      "Matrix": 7605,
      "incipal": 7606,
      ";</": 7607,
      "TUSER": 7608,
      "pip": 7609,
      "ĥ½": 7610,
      "scroll": 7611,
      "beat": 7612,
      "objects": 7613,
      "hes": 7614,
      "ĠBEGIN": 7615,
      "Ġconse": 7616,
      "Ġnothing": 7617,
      "ligence": 7618,
      "Timer": 7619,
      "ti": 7620,
      "reply": 7621,
      "ĠFix": 7622,
      "ĠMat": 7623,
      "ORS": 7624,
      "webpack": 7625,
      ">{{": 7626,
      "Driver": 7627,
      "folder": 7628,
      "whether": 7629,
      "Ġcy": 7630,
      "ssh": 7631,
      "Ġdecl": 7632,
      "Ġunsafe": 7633,
      "aved": 7634,
      "ĠRest": 7635,
      "ä½¿": 7636,
      "audio": 7637,
      "wdata": 7638,
      "Ġrequiring": 7639,
      "cov": 7640,
      "Ġ2000": 7641,
      "Contract": 7642,
      "AVX": 7643,
      "Ġlatest": 7644,
      "NOP": 7645,
      "nuget": 7646,
      "Ġcarri": 7647,
      "ically": 7648,
      "Ġnu": 7649,
      "Ġdig": 7650,
      "usize": 7651,
      "Ġhold": 7652,
      "vention": 7653,
      "Ġconfid": 7654,
      "Dynamic": 7655,
      "Pop": 7656,
      "dynamic": 7657,
      "xref": 7658,
      "oration": 7659,
      "lide": 7660,
      "umi": 7661,
      "Revenue": 7662,
      "aming": 7663,
      "\">>,": 7664,
      "lectual": 7665,
      "åı¯": 7666,
      "Arguments": 7667,
      "Ġë°": 7668,
      "rbp": 7669,
      "Ġdescribed": 7670,
      "ĠHOLDERS": 7671,
      "Ġintellectual": 7672,
      "curl": 7673,
      "ktop": 7674,
      "ìŀ": 7675,
      "Ġsprintf": 7676,
      "irror": 7677,
      "ĠBit": 7678,
      "sph": 7679,
      "ãĥĨ": 7680,
      "crete": 7681,
      "Diag": 7682,
      "lda": 7683,
      "Ġsq": 7684,
      "edBy": 7685,
      "spark": 7686,
      "brid": 7687,
      "Ġlogin": 7688,
      "Ġclone": 7689,
      "BUILD": 7690,
      "proplist": 7691,
      "DIFY": 7692,
      "Prefix": 7693,
      "tid": 7694,
      "Ġtags": 7695,
      "Ġbasic": 7696,
      "Ġgraph": 7697,
      "Ġimages": 7698,
      "ĠSubname": 7699,
      "Chocolatey": 7700,
      "(::": 7701,
      "°Ģ": 7702,
      "sumer": 7703,
      "Ġprior": 7704,
      "Switch": 7705,
      "Fixture": 7706,
      "![": 7707,
      "Ġcmp": 7708,
      "Ġduration": 7709,
      "Ġthree": 7710,
      "ĠWidget": 7711,
      "chef": 7712,
      "Ġcolumns": 7713,
      "That": 7714,
      ")])": 7715,
      "^.": 7716,
      "tv": 7717,
      "strip": 7718,
      "plus": 7719,
      "Ġmodification": 7720,
      "Commands": 7721,
      "rdx": 7722,
      "Ready": 7723,
      "ĠFAULTS": 7724,
      "NECTION": 7725,
      "AIN": 7726,
      "Pack": 7727,
      "ina": 7728,
      "ĠPage": 7729,
      "scall": 7730,
      "Ġlogger": 7731,
      "AVXalign": 7732,
      "10000": 7733,
      "Present": 7734,
      "VICE": 7735,
      "_(": 7736,
      "lers": 7737,
      "norm": 7738,
      "}\")": 7739,
      "olang": 7740,
      "ements": 7741,
      "environment": 7742,
      "omatically": 7743,
      "ORE": 7744,
      "href": 7745,
      "ĠDocker": 7746,
      "ĠBar": 7747,
      "ummar": 7748,
      "ĠOFFSET": 7749,
      "gtwiz": 7750,
      "ServerMetadata": 7751,
      "DT": 7752,
      "Join": 7753,
      "Ġtc": 7754,
      "Ġdid": 7755,
      "adr": 7756,
      "ĠFind": 7757,
      "UTORY": 7758,
      "gistration": 7759,
      "BuildContext": 7760,
      "ĠSTATUTORY": 7761,
      "deploy": 7762,
      "rome": 7763,
      "eds": 7764,
      "Ġpropri": 7765,
      "Ġextract": 7766,
      "FileName": 7767,
      "Statement": 7768,
      "istributed": 7769,
      "ĠUnivers": 7770,
      "auses": 7771,
      "ĠParameter": 7772,
      "clarations": 7773,
      "Ġproprietary": 7774,
      "FL": 7775,
      "Ok": 7776,
      "Peer": 7777,
      "xc": 7778,
      "ĠFoo": 7779,
      "-------------": 7780,
      "ĠDocument": 7781,
      "Gr": 7782,
      "Scal": 7783,
      "_|": 7784,
      "aj": 7785,
      "ctl": 7786,
      "Ġ{},": 7787,
      "ĠTCOD": 7788,
      "Anchor": 7789,
      "contents": 7790,
      "ĠHTML": 7791,
      "ĠTransaction": 7792,
      "broker": 7793,
      "ĠAPPLICATIONS": 7794,
      "375": 7795,
      "FE": 7796,
      "XY": 7797,
      "urst": 7798,
      "ĠAction": 7799,
      "ĠCount": 7800,
      "ĠPh": 7801,
      "ĠLine": 7802,
      "ATOR": 7803,
      "ĠGL": 7804,
      "Ġcharset": 7805,
      "bitrary": 7806,
      "Ġindirect": 7807,
      "TermM": 7808,
      "ersistence": 7809,
      "Ġexecute": 7810,
      "<%": 7811,
      "Tab": 7812,
      "men": 7813,
      "ves": 7814,
      "wb": 7815,
      "yield": 7816,
      "ante": 7817,
      "ewith": 7818,
      "clj": 7819,
      "Ġracket": 7820,
      "${_": 7821,
      "Ġlove": 7822,
      "atted": 7823,
      "Subject": 7824,
      "binding": 7825,
      "Ġherewith": 7826,
      "Big": 7827,
      "Mar": 7828,
      "Tuple": 7829,
      "pot": 7830,
      "ĠSort": 7831,
      "ATCH": 7832,
      "selector": 7833,
      "ĠThrow": 7834,
      "cursor": 7835,
      "æį®": 7836,
      "åī": 7837,
      "Ġcref": 7838,
      "ĠTe": 7839,
      "1164": 7840,
      "layers": 7841,
      ")]{": 7842,
      "ĠassertEquals": 7843,
      "\"));": 7844,
      "ĠTHESE": 7845,
      "Ġcalc": 7846,
      "ĠAddress": 7847,
      "respon": 7848,
      "ĠAPMS": 7849,
      "gregate": 7850,
      "Rx": 7851,
      "mask": 7852,
      "Ġbuilt": 7853,
      "Ġmobile": 7854,
      "ATED": 7855,
      "ĠProperty": 7856,
      "Sharp": 7857,
      "WordArray": 7858,
      "Ġgranted": 7859,
      "illiseconds": 7860,
      "OU": 7861,
      "}},": 7862,
      "Äĳ": 7863,
      "Ġtre": 7864,
      "ĠSend": 7865,
      "formed": 7866,
      "Ġconfigured": 7867,
      "Ġpredict": 7868,
      "Monad": 7869,
      "adoop": 7870,
      ".[": 7871,
      "åĮ": 7872,
      "Ġarch": 7873,
      "Ġ300": 7874,
      "Ġcomplete": 7875,
      "Records": 7876,
      "Ġsteps": 7877,
      "Ġmacro": 7878,
      "DISPLAY": 7879,
      "allel": 7880,
      "Random": 7881,
      "dy": 7882,
      "Ã£": 7883,
      "æ³": 7884,
      "čĊĠĠĠĠĠĠĠĠĠ": 7885,
      "Ġnature": 7886,
      "ups": 7887,
      "Ġlit": 7888,
      "Ġsep": 7889,
      "Ġappear": 7890,
      "DEP": 7891,
      "confirm": 7892,
      "Authentication": 7893,
      "Linear": 7894,
      "AY": 7895,
      "Light": 7896,
      "dialog": 7897,
      "uGet": 7898,
      "asi": 7899,
      "ecfg": 7900,
      "logical": 7901,
      "structions": 7902,
      "mobile": 7903,
      "sup": 7904,
      "Ġsafety": 7905,
      "elastic": 7906,
      "otype": 7907,
      "Ġresources": 7908,
      "aket": 7909,
      "Ġcluster": 7910,
      "Factor": 7911,
      "Guard": 7912,
      "Ġ(),": 7913,
      "puts": 7914,
      "ãģĵ": 7915,
      "CONFIG": 7916,
      "generator": 7917,
      "encoded": 7918,
      "EMP": 7919,
      "MON": 7920,
      "ea": 7921,
      "np": 7922,
      "å·": 7923,
      "istog": 7924,
      "Ġxy": 7925,
      "åıĸ": 7926,
      "ahb": 7927,
      "Ġsleep": 7928,
      "Org": 7929,
      "Ġpersonal": 7930,
      "Ġjavax": 7931,
      "ĠÂ©": 7932,
      "+)": 7933,
      "ĠIr": 7934,
      "Ġ#=": 7935,
      "ĠmustBe": 7936,
      "Ġmatches": 7937,
      "ëĭĪëĭ¤": 7938,
      "fra": 7939,
      "ĨĴ": 7940,
      "extern": 7941,
      "Ġreverse": 7942,
      "ĠSte": 7943,
      "verage": 7944,
      "oding": 7945,
      "ĠBack": 7946,
      "aking": 7947,
      "linky": 7948,
      "ĠConnection": 7949,
      "Login": 7950,
      "Ġcalculate": 7951,
      "$$$$": 7952,
      "sect": 7953,
      "Ġ\"+": 7954,
      "deftest": 7955,
      "([],": 7956,
      "Ġarising": 7957,
      "ategor": 7958,
      "))))))": 7959,
      "connections": 7960,
      "ĠConfiguration": 7961,
      "sourceTextEndOffset": 7962,
      "Year": 7963,
      "jj": 7964,
      "Ġcert": 7965,
      "Ġpaste": 7966,
      "riend": 7967,
      "ĠSALES": 7968,
      "otion": 7969,
      "ceptions": 7970,
      "upper": 7971,
      "Stats": 7972,
      "areset": 7973,
      "viders": 7974,
      "cdn": 7975,
      "Ġgem": 7976,
      "Running": 7977,
      "MemberSignature": 7978,
      "ĠSo": 7979,
      "ĠNEW": 7980,
      "Ġgt": 7981,
      "Ġdeal": 7982,
      "Ġ#\\": 7983,
      "ENTIAL": 7984,
      "Ġensure": 7985,
      "postgres": 7986,
      "ĠMODIFY": 7987,
      "ARGET": 7988,
      "limited": 7989,
      "Ġdiff": 7990,
      "riction": 7991,
      "Visual": 7992,
      "versal": 7993,
      "Ġinternational": 7994,
      "Mut": 7995,
      "fab": 7996,
      "Req": 7997,
      "Ġconstruct": 7998,
      "Ġseq": 7999
    },
    "merges": [
      [
        "Ġ",
        "Ġ"
      ],
      [
        "ĠĠ",
        "ĠĠ"
      ],
      [
        "i",
        "n"
      ],
      [
        "e",
        "r"
      ],
      [
        "ĠĠĠĠ",
        "ĠĠĠĠ"
      ],
      [
        "o",
        "n"
      ],
      [
        "ĠĠ",
        "Ġ"
      ],
      [
        "r",
        "e"
      ],
      [
        "-",
        "-"
      ],
      [
        "a",
        "t"
      ],
      [
        "s",
        "t"
      ],
      [
        "e",
        "n"
      ],
      [
        "o",
        "r"
      ],
      [
        "Ġ",
        "t"
      ],
      [
        "l",
        "e"
      ],
      [
        "a",
        "l"
      ],
      [
        "Ġ",
        "="
      ],
      [
        "s",
        "e"
      ],
      [
        "a",
        "r"
      ],
      [
        "i",
        "t"
      ],
      [
        "a",
        "n"
      ],
      [
        "d",
        "e"
      ],
      [
        "i",
        "on"
      ],
      [
        "Ġ",
        "c"
      ],
      [
        "m",
        "e"
      ],
      [
        "Ġ",
        "\""
      ],
      [
        "Ċ",
        "ĠĠĠ"
      ],
      [
        "Ċ",
        "ĠĠĠĠ"
      ],
      [
        "c",
        "t"
      ],
      [
        "r",
        "o"
      ],
      [
        "h",
        "e"
      ],
      [
        "--",
        "--"
      ],
      [
        "Ġ",
        "("
      ],
      [
        "u",
        "t"
      ],
      [
        "Ċ",
        "ĠĠĠĠĠĠĠĠ"
      ],
      [
        "Ġ",
        "f"
      ],
      [
        "in",
        "g"
      ],
      [
        "i",
        "c"
      ],
      [
        "*",
        "*"
      ],
      [
        "Ġ",
        "p"
      ],
      [
        "i",
        "s"
      ],
      [
        "e",
        "s"
      ],
      [
        "Ġ",
        "a"
      ],
      [
        "/",
        "/"
      ],
      [
        "u",
        "n"
      ],
      [
        "g",
        "e"
      ],
      [
        "en",
        "t"
      ],
      [
        "Ċ",
        "Ġ"
      ],
      [
        "Ġ",
        "s"
      ],
      [
        "Ġ",
        "{"
      ],
      [
        "l",
        "o"
      ],
      [
        "m",
        "p"
      ],
      [
        "ĊĠĠĠĠ",
        "ĠĠĠ"
      ],
      [
        "=",
        "="
      ],
      [
        "e",
        "d"
      ],
      [
        "u",
        "r"
      ],
      [
        "a",
        "me"
      ],
      [
        "0",
        "0"
      ],
      [
        "Ġ",
        "in"
      ],
      [
        "a",
        "s"
      ],
      [
        "a",
        "c"
      ],
      [
        "Ġ",
        "n"
      ],
      [
        "e",
        "x"
      ],
      [
        "i",
        "d"
      ],
      [
        "i",
        "l"
      ],
      [
        "Ġ",
        "o"
      ],
      [
        "Ġ",
        "b"
      ],
      [
        "Ġ",
        "w"
      ],
      [
        "Ġ",
        "re"
      ],
      [
        "Ġt",
        "he"
      ],
      [
        "c",
        "o"
      ],
      [
        "i",
        "f"
      ],
      [
        "Ġ",
        "d"
      ],
      [
        "r",
        "i"
      ],
      [
        "at",
        "e"
      ],
      [
        "a",
        "d"
      ],
      [
        "p",
        "e"
      ],
      [
        "Ġ",
        "m"
      ],
      [
        "Ġ",
        "<"
      ],
      [
        "Ġ",
        "S"
      ],
      [
        "Ġ",
        "-"
      ],
      [
        "Ġ",
        "'"
      ],
      [
        "u",
        "e"
      ],
      [
        "#",
        "#"
      ],
      [
        "----",
        "----"
      ],
      [
        "Ġ",
        ":"
      ],
      [
        ")",
        ")"
      ],
      [
        "u",
        "l"
      ],
      [
        "e",
        "t"
      ],
      [
        "ĠĠĠĠĠĠĠĠ",
        "ĠĠĠĠĠĠĠĠ"
      ],
      [
        "e",
        "l"
      ],
      [
        "a",
        "p"
      ],
      [
        "Ġ",
        "["
      ],
      [
        "an",
        "d"
      ],
      [
        "l",
        "i"
      ],
      [
        "a",
        "b"
      ],
      [
        ")",
        ";"
      ],
      [
        "c",
        "h"
      ],
      [
        "o",
        "t"
      ],
      [
        "Ġ",
        "v"
      ],
      [
        "\"",
        ","
      ],
      [
        "Ġ",
        "T"
      ],
      [
        "Ġ",
        "A"
      ],
      [
        "or",
        "t"
      ],
      [
        "at",
        "ion"
      ],
      [
        "Ġ",
        "C"
      ],
      [
        "i",
        "g"
      ],
      [
        "ĊĠĠĠĠ",
        "Ġ"
      ],
      [
        "o",
        "l"
      ],
      [
        "ĉ",
        "ĉ"
      ],
      [
        "=",
        "\""
      ],
      [
        "**",
        "**"
      ],
      [
        ")",
        ","
      ],
      [
        "p",
        "t"
      ],
      [
        "en",
        "d"
      ],
      [
        "Ġ",
        "}"
      ],
      [
        "c",
        "e"
      ],
      [
        "Ġ",
        "0"
      ],
      [
        "t",
        "er"
      ],
      [
        "u",
        "s"
      ],
      [
        "Ġ",
        "I"
      ],
      [
        "t",
        "r"
      ],
      [
        "Ġ",
        "*"
      ],
      [
        "t",
        "e"
      ],
      [
        "u",
        "b"
      ],
      [
        "Ġ",
        "1"
      ],
      [
        "on",
        "t"
      ],
      [
        "a",
        "ge"
      ],
      [
        "Ġ",
        "st"
      ],
      [
        "ct",
        "ion"
      ],
      [
        "u",
        "m"
      ],
      [
        "Ġt",
        "o"
      ],
      [
        "ĠĠĠĠ",
        "ĠĠĠ"
      ],
      [
        "de",
        "f"
      ],
      [
        "h",
        "t"
      ],
      [
        "s",
        "s"
      ],
      [
        "Ġ",
        "$"
      ],
      [
        "==",
        "=="
      ],
      [
        "v",
        "er"
      ],
      [
        "t",
        "h"
      ],
      [
        "o",
        "d"
      ],
      [
        "Ġ",
        "P"
      ],
      [
        "ĊĠĠĠĠĠĠĠĠ",
        "ĠĠĠ"
      ],
      [
        "i",
        "le"
      ],
      [
        "y",
        "pe"
      ],
      [
        "r",
        "a"
      ],
      [
        "i",
        "v"
      ],
      [
        "(",
        ")"
      ],
      [
        "ex",
        "t"
      ],
      [
        "Ġt",
        "h"
      ],
      [
        "as",
        "s"
      ],
      [
        "ge",
        "t"
      ],
      [
        "t",
        "o"
      ],
      [
        "u",
        "p"
      ],
      [
        "i",
        "mp"
      ],
      [
        "at",
        "a"
      ],
      [
        "o",
        "de"
      ],
      [
        "Ġ",
        "D"
      ],
      [
        "e",
        "ct"
      ],
      [
        "Ġo",
        "f"
      ],
      [
        "e",
        "w"
      ],
      [
        "se",
        "t"
      ],
      [
        "<",
        "/"
      ],
      [
        "it",
        "h"
      ],
      [
        "Ġ",
        "."
      ],
      [
        "ac",
        "k"
      ],
      [
        "c",
        "on"
      ],
      [
        "p",
        "ut"
      ],
      [
        "al",
        "l"
      ],
      [
        "\"",
        ":"
      ],
      [
        "ab",
        "le"
      ],
      [
        "Ġ",
        "@"
      ],
      [
        "R",
        "e"
      ],
      [
        "Ġ",
        "N"
      ],
      [
        "Ġ",
        "is"
      ],
      [
        "i",
        "st"
      ],
      [
        "c",
        "k"
      ],
      [
        "q",
        "u"
      ],
      [
        ")",
        "."
      ],
      [
        "i",
        "z"
      ],
      [
        "Ġ",
        "//"
      ],
      [
        "Ġ",
        "l"
      ],
      [
        ":",
        ":"
      ],
      [
        "in",
        "t"
      ],
      [
        "o",
        "m"
      ],
      [
        "Ġ",
        "L"
      ],
      [
        "Ġ",
        "F"
      ],
      [
        "in",
        "e"
      ],
      [
        "a",
        "m"
      ],
      [
        "o",
        "p"
      ],
      [
        "##",
        "##"
      ],
      [
        "i",
        "re"
      ],
      [
        "I",
        "n"
      ],
      [
        "e",
        "m"
      ],
      [
        "o",
        "w"
      ],
      [
        "i",
        "r"
      ],
      [
        "er",
        "s"
      ],
      [
        "ul",
        "t"
      ],
      [
        "n",
        "ame"
      ],
      [
        "Ġf",
        "or"
      ],
      [
        "Ġ-",
        ">"
      ],
      [
        "'",
        ","
      ],
      [
        "ur",
        "n"
      ],
      [
        "Ġ",
        "M"
      ],
      [
        "i",
        "me"
      ],
      [
        "Ġ",
        "g"
      ],
      [
        "p",
        "l"
      ],
      [
        "--------",
        "--------"
      ],
      [
        "Ġ",
        "and"
      ],
      [
        "k",
        "e"
      ],
      [
        "E",
        "R"
      ],
      [
        "c",
        "l"
      ],
      [
        "Ġ",
        "e"
      ],
      [
        "(",
        "\""
      ],
      [
        "imp",
        "ort"
      ],
      [
        "Ġ",
        "|"
      ],
      [
        "le",
        "t"
      ],
      [
        "i",
        "m"
      ],
      [
        "Ġ",
        "O"
      ],
      [
        "a",
        "y"
      ],
      [
        "ĠĠĠĠ",
        "Ġ"
      ],
      [
        "ar",
        "t"
      ],
      [
        "a",
        "se"
      ],
      [
        "Ġ",
        "E"
      ],
      [
        "Ġ",
        "2"
      ],
      [
        "s",
        "c"
      ],
      [
        "m",
        "ent"
      ],
      [
        "a",
        "x"
      ],
      [
        "t",
        "urn"
      ],
      [
        "a",
        "g"
      ],
      [
        "I",
        "N"
      ],
      [
        "Ġ",
        "h"
      ],
      [
        "v",
        "al"
      ],
      [
        "pt",
        "ion"
      ],
      [
        "Ġ",
        "B"
      ],
      [
        "s",
        "p"
      ],
      [
        "Ġc",
        "on"
      ],
      [
        "u",
        "re"
      ],
      [
        "er",
        "t"
      ],
      [
        "****",
        "****"
      ],
      [
        "R",
        "E"
      ],
      [
        "Ġ=",
        ">"
      ],
      [
        "\"",
        ">"
      ],
      [
        "Ġ",
        "de"
      ],
      [
        "p",
        "ro"
      ],
      [
        "O",
        "N"
      ],
      [
        "at",
        "h"
      ],
      [
        "d",
        "er"
      ],
      [
        "Ġ",
        "if"
      ],
      [
        "Ġ",
        "or"
      ],
      [
        "r",
        "ing"
      ],
      [
        "ĊĠĠĠĠĠĠĠĠ",
        "ĠĠĠĠĠĠĠĠ"
      ],
      [
        "Ġ",
        "#"
      ],
      [
        "j",
        "ect"
      ],
      [
        "u",
        "se"
      ],
      [
        "Ġp",
        "ro"
      ],
      [
        "a",
        "in"
      ],
      [
        "e",
        "st"
      ],
      [
        "o",
        "s"
      ],
      [
        "o",
        "ur"
      ],
      [
        "Ġ",
        "se"
      ],
      [
        "o",
        "ut"
      ],
      [
        "Ġ",
        "r"
      ],
      [
        "Ġd",
        "o"
      ],
      [
        "es",
        "s"
      ],
      [
        "S",
        "t"
      ],
      [
        "Ċ",
        "ĉĉ"
      ],
      [
        "iz",
        "e"
      ],
      [
        "A",
        "T"
      ],
      [
        "v",
        "e"
      ],
      [
        "Ċ",
        "ĉ"
      ],
      [
        "l",
        "ass"
      ],
      [
        "n",
        "t"
      ],
      [
        "or",
        "m"
      ],
      [
        "====",
        "===="
      ],
      [
        "a",
        "ct"
      ],
      [
        "Ġ",
        "end"
      ],
      [
        "Ġ",
        "--"
      ],
      [
        "Ġ",
        "ex"
      ],
      [
        "t",
        "p"
      ],
      [
        "tr",
        "ing"
      ],
      [
        "Ġ",
        "W"
      ],
      [
        ".",
        "."
      ],
      [
        "0",
        "1"
      ],
      [
        "\"",
        ")"
      ],
      [
        "E",
        "N"
      ],
      [
        "co",
        "m"
      ],
      [
        "r",
        "or"
      ],
      [
        "Ċ",
        "ĊĠĠĠ"
      ],
      [
        "ro",
        "m"
      ],
      [
        "Ġb",
        "e"
      ],
      [
        "un",
        "ction"
      ],
      [
        "Ġv",
        "al"
      ],
      [
        "Ġ",
        "/"
      ],
      [
        "ĊĠĠĠĠĠĠĠĠ",
        "ĠĠĠĠĠĠĠ"
      ],
      [
        "s",
        "h"
      ],
      [
        "s",
        "er"
      ],
      [
        "un",
        "t"
      ],
      [
        "Ġ",
        "R"
      ],
      [
        ";",
        ";"
      ],
      [
        "q",
        "ue"
      ],
      [
        "lo",
        "g"
      ],
      [
        "it",
        "y"
      ],
      [
        "l",
        "ic"
      ],
      [
        "Ġ",
        "G"
      ],
      [
        "Ġt",
        "r"
      ],
      [
        "N",
        "ame"
      ],
      [
        "Ġ",
        "_"
      ],
      [
        "Ġ",
        "U"
      ],
      [
        "or",
        "d"
      ],
      [
        "Ġn",
        "ame"
      ],
      [
        "P",
        "ro"
      ],
      [
        "Ġ",
        "def"
      ],
      [
        "Ġ",
        "V"
      ],
      [
        "l",
        "f"
      ],
      [
        "A",
        "R"
      ],
      [
        "u",
        "le"
      ],
      [
        "it",
        "e"
      ],
      [
        "Ġ",
        "an"
      ],
      [
        "a",
        "re"
      ],
      [
        "f",
        "ig"
      ],
      [
        "o",
        "re"
      ],
      [
        "Ġ",
        "&"
      ],
      [
        "ht",
        "tp"
      ],
      [
        "Ġw",
        "ith"
      ],
      [
        "A",
        "L"
      ],
      [
        "u",
        "il"
      ],
      [
        "S",
        "T"
      ],
      [
        "f",
        "f"
      ],
      [
        "Ġ",
        "y"
      ],
      [
        "Ġ",
        "+"
      ],
      [
        "in",
        "d"
      ],
      [
        "lo",
        "c"
      ],
      [
        "Ġ",
        "`"
      ],
      [
        "Ġre",
        "turn"
      ],
      [
        "Ġ",
        "3"
      ],
      [
        "i",
        "al"
      ],
      [
        "te",
        "st"
      ],
      [
        "li",
        "st"
      ],
      [
        "Ġc",
        "lass"
      ],
      [
        "Ġ",
        "\\"
      ],
      [
        "o",
        "c"
      ],
      [
        "ar",
        "y"
      ],
      [
        "ac",
        "e"
      ],
      [
        "I",
        "T"
      ],
      [
        "L",
        "E"
      ],
      [
        "Ġ",
        "on"
      ],
      [
        "O",
        "R"
      ],
      [
        "Ċ",
        "ĠĠ"
      ],
      [
        "(",
        "'"
      ],
      [
        "S",
        "E"
      ],
      [
        "p",
        "re"
      ],
      [
        "en",
        "se"
      ],
      [
        "i",
        "p"
      ],
      [
        "Ġ",
        "un"
      ],
      [
        "d",
        "ata"
      ],
      [
        "ri",
        "b"
      ],
      [
        "o",
        "o"
      ],
      [
        "t",
        "ype"
      ],
      [
        "I",
        "d"
      ],
      [
        "it",
        "ion"
      ],
      [
        "s",
        "y"
      ],
      [
        "j",
        "s"
      ],
      [
        "ic",
        "e"
      ],
      [
        "d",
        "d"
      ],
      [
        "s",
        "ion"
      ],
      [
        "ĊĠĠĠĠĠĠĠĠ",
        "Ġ"
      ],
      [
        "o",
        "mp"
      ],
      [
        "Ġth",
        "is"
      ],
      [
        "ig",
        "n"
      ],
      [
        "ke",
        "y"
      ],
      [
        "ul",
        "l"
      ],
      [
        "00",
        "00"
      ],
      [
        "####",
        "####"
      ],
      [
        "Ġ",
        "x"
      ],
      [
        "I",
        "C"
      ],
      [
        "or",
        "y"
      ],
      [
        "l",
        "l"
      ],
      [
        "Ġ",
        "%"
      ],
      [
        ":",
        "//"
      ],
      [
        "our",
        "ce"
      ],
      [
        "iv",
        "e"
      ],
      [
        "ar",
        "g"
      ],
      [
        "Ġn",
        "ot"
      ],
      [
        "]",
        ","
      ],
      [
        "l",
        "y"
      ],
      [
        "Ġw",
        "h"
      ],
      [
        "p",
        "ort"
      ],
      [
        "Ġo",
        "ut"
      ],
      [
        "i",
        "es"
      ],
      [
        "c",
        "c"
      ],
      [
        "a",
        "il"
      ],
      [
        "a",
        "v"
      ],
      [
        "p",
        "ar"
      ],
      [
        "f",
        "ile"
      ],
      [
        "ĠĠĠĠ",
        "ĠĠ"
      ],
      [
        "T",
        "ype"
      ],
      [
        "Ċ",
        "ĊĠ"
      ],
      [
        "I",
        "D"
      ],
      [
        "a",
        "st"
      ],
      [
        "m",
        "o"
      ],
      [
        "b",
        "ject"
      ],
      [
        "p",
        "er"
      ],
      [
        "al",
        "se"
      ],
      [
        "Ġ",
        "it"
      ],
      [
        "Ġ",
        "me"
      ],
      [
        "u",
        "st"
      ],
      [
        "u",
        "ct"
      ],
      [
        "d",
        "iv"
      ],
      [
        "-",
        ">"
      ],
      [
        "u",
        "g"
      ],
      [
        "on",
        "e"
      ],
      [
        "c",
        "ont"
      ],
      [
        "ad",
        "d"
      ],
      [
        "od",
        "ule"
      ],
      [
        "I",
        "S"
      ],
      [
        "ic",
        "ense"
      ],
      [
        "re",
        "s"
      ],
      [
        "de",
        "x"
      ],
      [
        "o",
        "f"
      ],
      [
        "I",
        "ON"
      ],
      [
        "Ġa",
        "s"
      ],
      [
        "C",
        "ont"
      ],
      [
        "ĊĠĠĠĠĠĠĠĠ",
        "ĠĠĠĠĠĠĠĠĠĠĠĠĠĠĠĠ"
      ],
      [
        "f",
        "orm"
      ],
      [
        "que",
        "st"
      ],
      [
        "E",
        "x"
      ],
      [
        "c",
        "he"
      ],
      [
        "at",
        "ch"
      ],
      [
        "b",
        "er"
      ],
      [
        "i",
        "o"
      ],
      [
        "Ġ",
        "H"
      ],
      [
        "v",
        "ent"
      ],
      [
        "an",
        "g"
      ],
      [
        "a",
        "ult"
      ],
      [
        "R",
        "O"
      ],
      [
        "Ġ",
        "let"
      ],
      [
        "U",
        "T"
      ],
      [
        "an",
        "ce"
      ],
      [
        "ra",
        "y"
      ],
      [
        "us",
        "er"
      ],
      [
        "h",
        "o"
      ],
      [
        "C",
        "on"
      ],
      [
        "i",
        "ew"
      ],
      [
        "Ġ",
        "use"
      ],
      [
        "st",
        "ring"
      ],
      [
        "er",
        "ror"
      ],
      [
        "or",
        "k"
      ],
      [
        "t",
        "ime"
      ],
      [
        "Ġb",
        "y"
      ],
      [
        "ar",
        "d"
      ],
      [
        "an",
        "t"
      ],
      [
        "ub",
        "lic"
      ],
      [
        "ow",
        "n"
      ],
      [
        "S",
        "tring"
      ],
      [
        "i",
        "el"
      ],
      [
        "ri",
        "g"
      ],
      [
        "Ġc",
        "ont"
      ],
      [
        "N",
        "T"
      ],
      [
        "E",
        "S"
      ],
      [
        "1",
        "0"
      ],
      [
        "e",
        "c"
      ],
      [
        "co",
        "de"
      ],
      [
        "Ġv",
        "ar"
      ],
      [
        "iel",
        "d"
      ],
      [
        "an",
        "s"
      ],
      [
        "Ġf",
        "ile"
      ],
      [
        "b",
        "o"
      ],
      [
        "ã",
        "ģ"
      ],
      [
        "uil",
        "d"
      ],
      [
        "g",
        "er"
      ],
      [
        "l",
        "ine"
      ],
      [
        "U",
        "L"
      ],
      [
        "p",
        "o"
      ],
      [
        "1",
        "2"
      ],
      [
        "Ġ<",
        "/"
      ],
      [
        "Ġf",
        "rom"
      ],
      [
        "********",
        "********"
      ],
      [
        "ro",
        "up"
      ],
      [
        "m",
        "l"
      ],
      [
        "Ġw",
        "ire"
      ],
      [
        "rib",
        "ut"
      ],
      [
        "_",
        "_"
      ],
      [
        "a",
        "mp"
      ],
      [
        "at",
        "ed"
      ],
      [
        "----------------",
        "----------------"
      ],
      [
        "Ġt",
        "ype"
      ],
      [
        "un",
        "d"
      ],
      [
        "Ġ=",
        "="
      ],
      [
        "re",
        "ad"
      ],
      [
        "sc",
        "ri"
      ],
      [
        "Ġin",
        "put"
      ],
      [
        "le",
        "ment"
      ],
      [
        "D",
        "e"
      ],
      [
        "Ġc",
        "h"
      ],
      [
        "lo",
        "ck"
      ],
      [
        "lo",
        "w"
      ],
      [
        "]",
        ")"
      ],
      [
        "st",
        "em"
      ],
      [
        "č",
        "Ċ"
      ],
      [
        "st",
        "r"
      ],
      [
        "qu",
        "ire"
      ],
      [
        "f",
        "o"
      ],
      [
        "Ġn",
        "ew"
      ],
      [
        "ĠI",
        "n"
      ],
      [
        "1",
        "1"
      ],
      [
        "co",
        "l"
      ],
      [
        "Ġ",
        "i"
      ],
      [
        "pe",
        "c"
      ],
      [
        "6",
        "4"
      ],
      [
        "ĊĠĠĠĠĠĠĠĠĠĠĠĠĠĠĠĠ",
        "ĠĠĠ"
      ],
      [
        "p",
        "os"
      ],
      [
        "Ġ",
        "!"
      ],
      [
        "re",
        "f"
      ],
      [
        "Ġa",
        "p"
      ],
      [
        "Ġtr",
        "ue"
      ],
      [
        "Ġ",
        "get"
      ],
      [
        "re",
        "ate"
      ],
      [
        "Ċ",
        "Ċ"
      ],
      [
        "li",
        "b"
      ],
      [
        "i",
        "x"
      ],
      [
        "at",
        "or"
      ],
      [
        "Ġ",
        "Re"
      ],
      [
        "d",
        "ate"
      ],
      [
        "ic",
        "ation"
      ],
      [
        "Ġf",
        "unction"
      ],
      [
        "ĠĠĠĠĠĠĠĠ",
        "ĠĠĠ"
      ],
      [
        "ig",
        "ht"
      ],
      [
        "ĠĠĠĠĠĠĠĠĠĠĠĠĠĠĠĠ",
        "ĠĠĠĠĠĠĠĠĠĠĠĠĠĠĠĠ"
      ],
      [
        "re",
        "turn"
      ],
      [
        "v",
        "ar"
      ],
      [
        "ode",
        "l"
      ],
      [
        "Ġ",
        "set"
      ],
      [
        "'",
        ")"
      ],
      [
        "(",
        ");"
      ],
      [
        "r",
        "ite"
      ],
      [
        "en",
        "er"
      ],
      [
        "en",
        "g"
      ],
      [
        "Ġ:",
        ":"
      ],
      [
        "Ġre",
        "s"
      ],
      [
        "ut",
        "h"
      ],
      [
        "t",
        "y"
      ],
      [
        "3",
        "2"
      ],
      [
        "Ġ",
        "X"
      ],
      [
        "v",
        "ice"
      ],
      [
        "Ġst",
        "ring"
      ],
      [
        "lo",
        "ad"
      ],
      [
        "er",
        "e"
      ],
      [
        "Ġth",
        "at"
      ],
      [
        "il",
        "l"
      ],
      [
        "ax",
        "i"
      ],
      [
        "Ġ",
        "4"
      ],
      [
        "o",
        "id"
      ],
      [
        "r",
        "int"
      ],
      [
        "rig",
        "ht"
      ],
      [
        "o",
        "u"
      ],
      [
        "pe",
        "ct"
      ],
      [
        "Ġ",
        "al"
      ],
      [
        "ap",
        "p"
      ],
      [
        "}",
        ","
      ],
      [
        "R",
        "es"
      ],
      [
        "V",
        "al"
      ],
      [
        "ac",
        "he"
      ],
      [
        "C",
        "T"
      ],
      [
        "http",
        "s"
      ],
      [
        "in",
        "k"
      ],
      [
        "ab",
        "el"
      ],
      [
        "T",
        "o"
      ],
      [
        "li",
        "ent"
      ],
      [
        "con",
        "st"
      ],
      [
        "Ġ:",
        "="
      ],
      [
        "a",
        "ke"
      ],
      [
        "A",
        "r"
      ],
      [
        "n",
        "ew"
      ],
      [
        "ro",
        "w"
      ],
      [
        "Ġcon",
        "st"
      ],
      [
        "if",
        "i"
      ],
      [
        "Ġp",
        "ar"
      ],
      [
        "========",
        "========"
      ],
      [
        "Ġth",
        "en"
      ],
      [
        "as",
        "h"
      ],
      [
        "cl",
        "u"
      ],
      [
        "Ġ<",
        "-"
      ],
      [
        "ĠL",
        "icense"
      ],
      [
        "ul",
        "d"
      ],
      [
        "Ġout",
        "put"
      ],
      [
        "Ġc",
        "om"
      ],
      [
        "ers",
        "ion"
      ],
      [
        "an",
        "ge"
      ],
      [
        "el",
        "se"
      ],
      [
        "Ġt",
        "est"
      ],
      [
        "E",
        "n"
      ],
      [
        "p",
        "ath"
      ],
      [
        "er",
        "m"
      ],
      [
        "A",
        "B"
      ],
      [
        "Ġf",
        "alse"
      ],
      [
        "at",
        "us"
      ],
      [
        "Ġ&",
        "&"
      ],
      [
        "ã",
        "ĥ"
      ],
      [
        "o",
        "g"
      ],
      [
        "um",
        "ent"
      ],
      [
        "se",
        "lf"
      ],
      [
        "ĠS",
        "tring"
      ],
      [
        "p",
        "ack"
      ],
      [
        "de",
        "d"
      ],
      [
        "val",
        "ue"
      ],
      [
        "Ġd",
        "ata"
      ],
      [
        "y",
        "le"
      ],
      [
        "p",
        "ert"
      ],
      [
        "ac",
        "h"
      ],
      [
        "U",
        "N"
      ],
      [
        "Ġval",
        "ue"
      ],
      [
        "O",
        "T"
      ],
      [
        "y",
        "stem"
      ],
      [
        "ã",
        "Ĥ"
      ],
      [
        "r",
        "c"
      ],
      [
        "ol",
        "or"
      ],
      [
        "\"",
        "]"
      ],
      [
        "he",
        "ad"
      ],
      [
        "M",
        "E"
      ],
      [
        "Ġse",
        "lf"
      ],
      [
        "A",
        "D"
      ],
      [
        "Ġ",
        "j"
      ],
      [
        "on",
        "se"
      ],
      [
        "def",
        "ine"
      ],
      [
        "m",
        "ap"
      ],
      [
        "n",
        "e"
      ],
      [
        "i",
        "b"
      ],
      [
        "eng",
        "th"
      ],
      [
        "op",
        "y"
      ],
      [
        "2",
        "0"
      ],
      [
        "um",
        "ber"
      ],
      [
        "Ġ",
        ">"
      ],
      [
        "1",
        "6"
      ],
      [
        "le",
        "ct"
      ],
      [
        "ur",
        "re"
      ],
      [
        "Ġ",
        ")"
      ],
      [
        "en",
        "c"
      ],
      [
        "e",
        "b"
      ],
      [
        "Ġ",
        "K"
      ],
      [
        "m",
        "s"
      ],
      [
        "'",
        ";"
      ],
      [
        "P",
        "ath"
      ],
      [
        "ur",
        "l"
      ],
      [
        "S",
        "er"
      ],
      [
        "Ġt",
        "ime"
      ],
      [
        "Ġin",
        "st"
      ],
      [
        "o",
        "b"
      ],
      [
        "it",
        "le"
      ],
      [
        "D",
        "ata"
      ],
      [
        "Ġin",
        "t"
      ],
      [
        "ĠĠĠĠĠĠĠĠ",
        "Ġ"
      ],
      [
        "r",
        "y"
      ],
      [
        "cl",
        "ass"
      ],
      [
        "Ġc",
        "omp"
      ],
      [
        "Ġ",
        "5"
      ],
      [
        "Ċ",
        "ĊĠĠĠĠĠĠĠ"
      ],
      [
        "loc",
        "al"
      ],
      [
        "Ġan",
        "y"
      ],
      [
        "ri",
        "v"
      ],
      [
        "ĠT",
        "he"
      ],
      [
        "e",
        "p"
      ],
      [
        "co",
        "unt"
      ],
      [
        "m",
        "odule"
      ],
      [
        "s",
        "ub"
      ],
      [
        "w",
        "ord"
      ],
      [
        "M",
        "P"
      ],
      [
        "w",
        "w"
      ],
      [
        "R",
        "A"
      ],
      [
        "00",
        "0"
      ],
      [
        "n",
        "ot"
      ],
      [
        "2",
        "5"
      ],
      [
        "re",
        "d"
      ],
      [
        "r",
        "ror"
      ],
      [
        "Ġ",
        "at"
      ],
      [
        "C",
        "O"
      ],
      [
        "Ġ}",
        ","
      ],
      [
        "EN",
        "T"
      ],
      [
        "b",
        "e"
      ],
      [
        "Ġ",
        "en"
      ],
      [
        "m",
        "and"
      ],
      [
        "a",
        "ve"
      ],
      [
        "m",
        "it"
      ],
      [
        "a",
        "w"
      ],
      [
        "e",
        "y"
      ],
      [
        "ame",
        "ter"
      ],
      [
        "Ġa",
        "re"
      ],
      [
        "Ġ",
        "k"
      ],
      [
        "o",
        "me"
      ],
      [
        "))",
        ")"
      ],
      [
        "S",
        "et"
      ],
      [
        "ter",
        "n"
      ],
      [
        "L",
        "ist"
      ],
      [
        "t",
        "ext"
      ],
      [
        "Ġa",
        "dd"
      ],
      [
        "9",
        "9"
      ],
      [
        "co",
        "mp"
      ],
      [
        "Ġ",
        "id"
      ],
      [
        "s",
        "ize"
      ],
      [
        "\"",
        ");"
      ],
      [
        "en",
        "ce"
      ],
      [
        "P",
        "ar"
      ],
      [
        "p",
        "h"
      ],
      [
        "k",
        "en"
      ],
      [
        "ver",
        "sion"
      ],
      [
        "urre",
        "nt"
      ],
      [
        "o",
        "st"
      ],
      [
        "un",
        "c"
      ],
      [
        "m",
        "in"
      ],
      [
        "f",
        "or"
      ],
      [
        "re",
        "e"
      ],
      [
        "T",
        "ext"
      ],
      [
        "re",
        "ss"
      ],
      [
        "..",
        "/"
      ],
      [
        "clu",
        "de"
      ],
      [
        "amp",
        "le"
      ],
      [
        "c",
        "ess"
      ],
      [
        "N",
        "D"
      ],
      [
        "r",
        "ap"
      ],
      [
        "con",
        "fig"
      ],
      [
        "e",
        "mp"
      ],
      [
        "ption",
        "s"
      ],
      [
        "as",
        "k"
      ],
      [
        "ect",
        "or"
      ],
      [
        "S",
        "e"
      ],
      [
        "qu",
        "al"
      ],
      [
        "h",
        "is"
      ],
      [
        "w",
        "ork"
      ],
      [
        "%",
        "%"
      ],
      [
        "Ġst",
        "d"
      ],
      [
        "ar",
        "ch"
      ],
      [
        "p",
        "end"
      ],
      [
        "Ġ",
        "list"
      ],
      [
        "//",
        "//"
      ],
      [
        "of",
        "t"
      ],
      [
        "E",
        "D"
      ],
      [
        "A",
        "S"
      ],
      [
        "Ġa",
        "ss"
      ],
      [
        "on",
        "g"
      ],
      [
        "er",
        "y"
      ],
      [
        "F",
        "ile"
      ],
      [
        "riv",
        "ate"
      ],
      [
        "Ġ",
        "else"
      ],
      [
        "U",
        "n"
      ],
      [
        "f",
        "unction"
      ],
      [
        "in",
        "dex"
      ],
      [
        "co",
        "re"
      ],
      [
        "C",
        "h"
      ],
      [
        "$",
        "{"
      ],
      [
        "i",
        "de"
      ],
      [
        "t",
        "x"
      ],
      [
        "cc",
        "ess"
      ],
      [
        "id",
        "th"
      ],
      [
        "ation",
        "s"
      ],
      [
        "Ġs",
        "h"
      ],
      [
        "########",
        "########"
      ],
      [
        "IN",
        "G"
      ],
      [
        "Ċĉĉ",
        "ĉ"
      ],
      [
        "o",
        "ck"
      ],
      [
        "\"",
        "\""
      ],
      [
        "Val",
        "ue"
      ],
      [
        "n",
        "c"
      ],
      [
        "A",
[...]
